/* Copyright 2020 The TensorFlow Authors. All Rights Reserved.

Licensed under the Apache License, Version 2.0 (the "License");
you may not use this file except in compliance with the License.
You may obtain a copy of the License at

    http://www.apache.org/licenses/LICENSE-2.0

Unless required by applicable law or agreed to in writing, software
distributed under the License is distributed on an "AS IS" BASIS,
WITHOUT WARRANTIES OR CONDITIONS OF ANY KIND, either express or implied.
See the License for the specific language governing permissions and
limitations under the License.
==============================================================================*/

// Automatically created from a TensorFlow Lite flatbuffer using the command:
// xxd -i model.tflite > model.cc

// This is a standard TensorFlow Lite model file that has been converted into a
// C data array, so it can be easily compiled into a binary for devices that
// don't have a file system.

// See train/README.md for a full description of the creation process.

#include "model.h"
                    
// Keep model aligned to 8 bytes to guarantee aligned 64-bit accesses.
alignas(8) const unsigned char tf_model_tflite[] = {
  0x20, 0x00, 0x00, 0x00, 0x54, 0x46, 0x4c, 0x33, 0x00, 0x00, 0x00, 0x00,
  0x14, 0x00, 0x20, 0x00, 0x1c, 0x00, 0x18, 0x00, 0x14, 0x00, 0x10, 0x00,
  0x0c, 0x00, 0x00, 0x00, 0x08, 0x00, 0x04, 0x00, 0x14, 0x00, 0x00, 0x00,
  0x1c, 0x00, 0x00, 0x00, 0x88, 0x00, 0x00, 0x00, 0xe0, 0x00, 0x00, 0x00,
  0x1c, 0x67, 0x00, 0x00, 0x2c, 0x67, 0x00, 0x00, 0xa4, 0xbe, 0x00, 0x00,
  0x03, 0x00, 0x00, 0x00, 0x01, 0x00, 0x00, 0x00, 0x04, 0x00, 0x00, 0x00,
  0xe6, 0x93, 0xff, 0xff, 0x0c, 0x00, 0x00, 0x00, 0x1c, 0x00, 0x00, 0x00,
  0x40, 0x00, 0x00, 0x00, 0x0f, 0x00, 0x00, 0x00, 0x73, 0x65, 0x72, 0x76,
  0x69, 0x6e, 0x67, 0x5f, 0x64, 0x65, 0x66, 0x61, 0x75, 0x6c, 0x74, 0x00,
  0x01, 0x00, 0x00, 0x00, 0x04, 0x00, 0x00, 0x00, 0x94, 0xff, 0xff, 0xff,
  0x30, 0x00, 0x00, 0x00, 0x04, 0x00, 0x00, 0x00, 0x0d, 0x00, 0x00, 0x00,
  0x71, 0x75, 0x61, 0x6e, 0x74, 0x5f, 0x64, 0x65, 0x6e, 0x73, 0x65, 0x5f,
  0x35, 0x00, 0x00, 0x00, 0x01, 0x00, 0x00, 0x00, 0x04, 0x00, 0x00, 0x00,
  0xf2, 0x93, 0xff, 0xff, 0x04, 0x00, 0x00, 0x00, 0x07, 0x00, 0x00, 0x00,
  0x69, 0x6e, 0x70, 0x75, 0x74, 0x5f, 0x36, 0x00, 0x02, 0x00, 0x00, 0x00,
  0x34, 0x00, 0x00, 0x00, 0x04, 0x00, 0x00, 0x00, 0xdc, 0xff, 0xff, 0xff,
  0x33, 0x00, 0x00, 0x00, 0x04, 0x00, 0x00, 0x00, 0x13, 0x00, 0x00, 0x00,
  0x43, 0x4f, 0x4e, 0x56, 0x45, 0x52, 0x53, 0x49, 0x4f, 0x4e, 0x5f, 0x4d,
  0x45, 0x54, 0x41, 0x44, 0x41, 0x54, 0x41, 0x00, 0x08, 0x00, 0x0c, 0x00,
  0x08, 0x00, 0x04, 0x00, 0x08, 0x00, 0x00, 0x00, 0x32, 0x00, 0x00, 0x00,
  0x04, 0x00, 0x00, 0x00, 0x13, 0x00, 0x00, 0x00, 0x6d, 0x69, 0x6e, 0x5f,
  0x72, 0x75, 0x6e, 0x74, 0x69, 0x6d, 0x65, 0x5f, 0x76, 0x65, 0x72, 0x73,
  0x69, 0x6f, 0x6e, 0x00, 0x34, 0x00, 0x00, 0x00, 0x38, 0x66, 0x00, 0x00,
  0x30, 0x66, 0x00, 0x00, 0x18, 0x66, 0x00, 0x00, 0x04, 0x66, 0x00, 0x00,
  0xf0, 0x65, 0x00, 0x00, 0xe8, 0x65, 0x00, 0x00, 0xd4, 0x65, 0x00, 0x00,
  0xcc, 0x65, 0x00, 0x00, 0xc4, 0x65, 0x00, 0x00, 0xbc, 0x65, 0x00, 0x00,
  0xb4, 0x65, 0x00, 0x00, 0xc0, 0x64, 0x00, 0x00, 0x74, 0x64, 0x00, 0x00,
  0x6c, 0x64, 0x00, 0x00, 0x64, 0x64, 0x00, 0x00, 0x5c, 0x64, 0x00, 0x00,
  0xf4, 0x61, 0x00, 0x00, 0xf4, 0x60, 0x00, 0x00, 0xec, 0x60, 0x00, 0x00,
  0xdc, 0x51, 0x00, 0x00, 0xcc, 0x50, 0x00, 0x00, 0xc4, 0x50, 0x00, 0x00,
  0xbc, 0x50, 0x00, 0x00, 0xb4, 0x50, 0x00, 0x00, 0x64, 0x4f, 0x00, 0x00,
  0x54, 0x4e, 0x00, 0x00, 0x4c, 0x4e, 0x00, 0x00, 0x3c, 0x3e, 0x00, 0x00,
  0x2c, 0x3d, 0x00, 0x00, 0x24, 0x3d, 0x00, 0x00, 0x1c, 0x3d, 0x00, 0x00,
  0x14, 0x3d, 0x00, 0x00, 0xc4, 0x3b, 0x00, 0x00, 0xb4, 0x3a, 0x00, 0x00,
  0xac, 0x3a, 0x00, 0x00, 0x9c, 0x2a, 0x00, 0x00, 0x8c, 0x29, 0x00, 0x00,
  0x84, 0x29, 0x00, 0x00, 0x34, 0x28, 0x00, 0x00, 0x24, 0x27, 0x00, 0x00,
  0x1c, 0x27, 0x00, 0x00, 0x0c, 0x17, 0x00, 0x00, 0xfc, 0x15, 0x00, 0x00,
  0xf4, 0x15, 0x00, 0x00, 0xec, 0x15, 0x00, 0x00, 0xe4, 0x15, 0x00, 0x00,
  0xdc, 0x15, 0x00, 0x00, 0x4c, 0x01, 0x00, 0x00, 0x98, 0x00, 0x00, 0x00,
  0x90, 0x00, 0x00, 0x00, 0x70, 0x00, 0x00, 0x00, 0x04, 0x00, 0x00, 0x00,
  0x36, 0x95, 0xff, 0xff, 0x04, 0x00, 0x00, 0x00, 0x5c, 0x00, 0x00, 0x00,
  0x0c, 0x00, 0x00, 0x00, 0x08, 0x00, 0x0e, 0x00, 0x08, 0x00, 0x04, 0x00,
  0x08, 0x00, 0x00, 0x00, 0x10, 0x00, 0x00, 0x00, 0x2c, 0x00, 0x00, 0x00,
  0x00, 0x00, 0x06, 0x00, 0x08, 0x00, 0x04, 0x00, 0x06, 0x00, 0x00, 0x00,
  0x04, 0x00, 0x00, 0x00, 0x02, 0x00, 0x00, 0x00, 0xeb, 0x03, 0x00, 0x00,
  0xd0, 0x07, 0x00, 0x00, 0x00, 0x00, 0x0a, 0x00, 0x10, 0x00, 0x0c, 0x00,
  0x08, 0x00, 0x04, 0x00, 0x0a, 0x00, 0x00, 0x00, 0x02, 0x00, 0x00, 0x00,
  0x02, 0x00, 0x00, 0x00, 0x04, 0x00, 0x00, 0x00, 0x06, 0x00, 0x00, 0x00,
  0x32, 0x2e, 0x31, 0x30, 0x2e, 0x30, 0x00, 0x00, 0x9e, 0x95, 0xff, 0xff,
  0x04, 0x00, 0x00, 0x00, 0x10, 0x00, 0x00, 0x00, 0x31, 0x2e, 0x31, 0x34,
  0x2e, 0x30, 0x00, 0x00, 0x00, 0x00, 0x00, 0x00, 0x00, 0x00, 0x00, 0x00,
  0x68, 0x44, 0xff, 0xff, 0xbe, 0x95, 0xff, 0xff, 0x04, 0x00, 0x00, 0x00,
  0xa4, 0x00, 0x00, 0x00, 0xb5, 0xfb, 0xff, 0xff, 0x70, 0xfc, 0xff, 0xff,
  0xde, 0xff, 0xff, 0xff, 0x5c, 0x00, 0x00, 0x00, 0x20, 0x01, 0x00, 0x00,
  0xbc, 0xff, 0xff, 0xff, 0x8f, 0x01, 0x00, 0x00, 0xe5, 0x01, 0x00, 0x00,
  0x18, 0x01, 0x00, 0x00, 0x7d, 0xfd, 0xff, 0xff, 0x92, 0xfd, 0xff, 0xff,
  0x7f, 0x01, 0x00, 0x00, 0x95, 0x00, 0x00, 0x00, 0xb9, 0xff, 0xff, 0xff,
  0x18, 0x01, 0x00, 0x00, 0x19, 0xfe, 0xff, 0xff, 0xcf, 0x00, 0x00, 0x00,
  0xa6, 0xff, 0xff, 0xff, 0x98, 0x01, 0x00, 0x00, 0x62, 0x01, 0x00, 0x00,
  0x6d, 0x00, 0x00, 0x00, 0xff, 0x00, 0x00, 0x00, 0x60, 0x00, 0x00, 0x00,
  0xb9, 0x00, 0x00, 0x00, 0x71, 0x01, 0x00, 0x00, 0x13, 0x01, 0x00, 0x00,
  0xd7, 0x02, 0x00, 0x00, 0x8a, 0x01, 0x00, 0x00, 0xe6, 0x01, 0x00, 0x00,
  0x58, 0x01, 0x00, 0x00, 0x12, 0x02, 0x00, 0x00, 0x43, 0x01, 0x00, 0x00,
  0xe7, 0xfd, 0xff, 0xff, 0xd9, 0xff, 0xff, 0xff, 0x8c, 0x01, 0x00, 0x00,
  0xa8, 0x01, 0x00, 0x00, 0xec, 0xfa, 0xff, 0xff, 0xef, 0xfa, 0xff, 0xff,
  0xed, 0xfa, 0xff, 0xff, 0xef, 0xfa, 0xff, 0xff, 0xec, 0xfa, 0xff, 0xff,
  0x6e, 0x96, 0xff, 0xff, 0x04, 0x00, 0x00, 0x00, 0x80, 0x14, 0x00, 0x00,
  0x06, 0xf1, 0xf8, 0xf1, 0xeb, 0xf8, 0xf8, 0xeb, 0xef, 0xd2, 0xf5, 0xf3,
  0xf2, 0xea, 0xe9, 0xe1, 0xf4, 0xf4, 0xee, 0xec, 0xdc, 0xe8, 0xe6, 0xdb,
  0xe7, 0x0a, 0xf1, 0xce, 0xfa, 0xef, 0xeb, 0xea, 0xef, 0xed, 0xf3, 0xce,
  0xd5, 0xc0, 0xe9, 0xf2, 0xd2, 0xec, 0xf2, 0xe8, 0xf8, 0xed, 0xdc, 0xeb,
  0xe3, 0xcd, 0xd8, 0xd7, 0xfa, 0xa1, 0xc7, 0x02, 0xd5, 0xf8, 0xe6, 0xff,
  0xb1, 0xca, 0xd7, 0xe0, 0xf2, 0xd8, 0xcb, 0xe9, 0xe1, 0xe9, 0xeb, 0xd6,
  0xe7, 0xc7, 0xe8, 0xdc, 0xef, 0xc7, 0xd1, 0xba, 0xcd, 0xd7, 0xcb, 0xe1,
  0xd1, 0xee, 0xe9, 0xdb, 0xea, 0x0e, 0xee, 0xc9, 0xd6, 0xed, 0xef, 0xe6,
  0xe5, 0xed, 0xd8, 0xcb, 0xe8, 0xce, 0xec, 0xdf, 0xd4, 0xdc, 0xd5, 0xed,
  0xdc, 0xda, 0xd6, 0xe0, 0xd5, 0xd2, 0xcc, 0xd6, 0xd2, 0x99, 0xca, 0xdc,
  0xc8, 0xf8, 0xe0, 0xdf, 0xc8, 0xdb, 0xce, 0xd9, 0xfd, 0xf5, 0x00, 0xfb,
  0xf2, 0x08, 0xfe, 0x04, 0x04, 0xee, 0x02, 0xf8, 0xdc, 0x0a, 0x0e, 0xe6,
  0x07, 0x03, 0x07, 0xf8, 0xfa, 0xfa, 0xed, 0x00, 0xe8, 0x11, 0x09, 0xea,
  0xfa, 0xf6, 0x07, 0xe9, 0xd7, 0xdb, 0x01, 0xf3, 0x03, 0xe0, 0xcd, 0xe1,
  0xef, 0x03, 0xf8, 0x02, 0x09, 0x10, 0xf3, 0xfa, 0xe2, 0xf1, 0xf3, 0xf3,
  0xf7, 0xe5, 0xe6, 0xf6, 0xfe, 0xe9, 0xf9, 0x0e, 0x0d, 0xb6, 0xeb, 0xfd,
  0xf8, 0xef, 0x08, 0xe9, 0x11, 0xfb, 0x06, 0xfd, 0x09, 0xfc, 0xea, 0xf1,
  0xd4, 0xfe, 0x08, 0xf3, 0x04, 0xfb, 0x0c, 0x07, 0xf5, 0x0b, 0xfe, 0x01,
  0xfa, 0x07, 0x03, 0xf9, 0x01, 0xef, 0xfe, 0xed, 0xe1, 0xe7, 0x01, 0xff,
  0x01, 0xfa, 0xe0, 0xeb, 0xff, 0xf4, 0xfc, 0x01, 0xfb, 0x04, 0xfe, 0xee,
  0xf4, 0xf9, 0xf9, 0xf4, 0x03, 0xd6, 0xf3, 0x01, 0x0c, 0xf0, 0xf2, 0x08,
  0x07, 0xcf, 0xfa, 0x09, 0x09, 0xf4, 0xee, 0xf7, 0xed, 0xf3, 0xf1, 0xec,
  0xf1, 0x03, 0xf6, 0xed, 0xf7, 0xf8, 0xfb, 0xec, 0xe5, 0xed, 0xdc, 0x00,
  0xfe, 0xfc, 0xf3, 0xfc, 0xfb, 0x04, 0xfa, 0xfb, 0xf6, 0x06, 0xf5, 0xfb,
  0xf4, 0x14, 0xec, 0xf6, 0xf5, 0xf4, 0xf0, 0xf1, 0xfe, 0xfe, 0xe8, 0xfd,
  0xf7, 0xeb, 0xf8, 0xf7, 0x0a, 0xf1, 0xf6, 0xf9, 0xf6, 0xf2, 0xee, 0xfc,
  0xe3, 0xfe, 0xfa, 0xef, 0xf7, 0x06, 0xf7, 0xe6, 0x02, 0xfd, 0xee, 0xe5,
  0xee, 0xfa, 0xee, 0xf5, 0xf6, 0xfb, 0xf6, 0xee, 0x06, 0xfd, 0x01, 0xf0,
  0xfd, 0xf5, 0xe0, 0x03, 0xf8, 0x06, 0xf3, 0xfc, 0x07, 0x06, 0x01, 0xf9,
  0xfe, 0x01, 0xe0, 0xfa, 0xf5, 0x0f, 0xfa, 0x00, 0xf7, 0xf2, 0xee, 0xee,
  0xf5, 0xfb, 0xf7, 0x01, 0xfe, 0xe3, 0xfe, 0xf3, 0x09, 0xfc, 0xfb, 0xf9,
  0xfc, 0xf7, 0xe4, 0xfa, 0xe4, 0x04, 0xfc, 0xf1, 0xf5, 0x00, 0xfa, 0xe6,
  0x0c, 0xed, 0x11, 0xf8, 0xfd, 0xd8, 0x05, 0xec, 0xe9, 0x04, 0xf3, 0xf0,
  0x05, 0xf3, 0xe4, 0xfc, 0xde, 0xe5, 0xd1, 0x02, 0xff, 0xf4, 0x03, 0xf9,
  0xfb, 0x01, 0xe8, 0xfe, 0xf1, 0x08, 0x0b, 0xf1, 0x00, 0x02, 0xec, 0xfe,
  0xf3, 0x00, 0x04, 0xf5, 0x00, 0xfb, 0xe5, 0x0f, 0xe2, 0xe8, 0xf8, 0xea,
  0xf8, 0xfb, 0xf9, 0xfc, 0xf9, 0xf6, 0xf2, 0x05, 0xef, 0x09, 0xed, 0xe2,
  0x02, 0xf9, 0xf8, 0xf5, 0xff, 0xf5, 0x08, 0xf8, 0xff, 0xf2, 0x08, 0xf4,
  0xfd, 0x07, 0xf0, 0xed, 0x0d, 0xef, 0xe8, 0xfb, 0xe9, 0xe6, 0xe5, 0x18,
  0x06, 0xfd, 0x02, 0x00, 0x00, 0x04, 0xf8, 0x00, 0xf5, 0x0d, 0x06, 0xf8,
  0xfe, 0x08, 0xfa, 0xfe, 0xf8, 0xfd, 0xfd, 0xec, 0xfa, 0xec, 0xef, 0x04,
  0xef, 0xea, 0xf6, 0xeb, 0x01, 0xfb, 0x00, 0xf8, 0xf1, 0x03, 0xf3, 0x00,
  0xef, 0x14, 0xe8, 0xd5, 0xef, 0xf1, 0x03, 0xf8, 0x01, 0x04, 0xe8, 0xea,
  0xdf, 0x04, 0xe4, 0xf8, 0x00, 0xeb, 0x04, 0x04, 0xf1, 0x08, 0xfb, 0xed,
  0xf9, 0x07, 0x09, 0xe2, 0xe6, 0xf0, 0xdd, 0xe8, 0xe7, 0xf7, 0x01, 0xeb,
  0x05, 0xe6, 0xd5, 0xea, 0xef, 0xfd, 0xfb, 0xed, 0xf6, 0xd9, 0xe7, 0xff,
  0xf0, 0xfc, 0xfb, 0xe9, 0x00, 0xfb, 0xf1, 0x04, 0xfc, 0xea, 0xd5, 0xf8,
  0xff, 0xe5, 0xda, 0xfd, 0xea, 0xeb, 0x01, 0x10, 0xfb, 0xf3, 0xdf, 0xdf,
  0xfe, 0x0f, 0xf1, 0xda, 0xe1, 0x09, 0xf1, 0x0d, 0xff, 0xdf, 0x04, 0x02,
  0xee, 0x04, 0x0c, 0x01, 0x05, 0x0f, 0x03, 0xd6, 0xdc, 0xf2, 0xd7, 0xe7,
  0xe7, 0xf0, 0x0b, 0xd8, 0x0e, 0xe3, 0xd6, 0xf6, 0xe7, 0xe2, 0x0d, 0xd5,
  0x00, 0xde, 0xe0, 0x10, 0xef, 0x05, 0x07, 0xed, 0x09, 0x05, 0xf1, 0x11,
  0xfc, 0xdb, 0xd2, 0xfc, 0x08, 0xf0, 0xc0, 0x02, 0xfe, 0xf2, 0x0b, 0x04,
  0x03, 0xf8, 0xdf, 0xdb, 0x04, 0xee, 0xe8, 0x08, 0xee, 0xeb, 0xf5, 0xdc,
  0xe1, 0x01, 0xf4, 0xe1, 0x03, 0xff, 0xfe, 0xf2, 0xea, 0xf6, 0xe3, 0xed,
  0xfa, 0x05, 0xf0, 0xe3, 0xf2, 0xff, 0xf3, 0xf8, 0xf4, 0x05, 0xfc, 0x07,
  0xfd, 0x0f, 0xe0, 0xfa, 0xed, 0xea, 0x13, 0xf3, 0xfe, 0x04, 0xd4, 0x0e,
  0xec, 0xd5, 0xfa, 0xff, 0x05, 0xf6, 0xf4, 0x02, 0xfa, 0xf7, 0xdc, 0xf4,
  0xe5, 0x09, 0x07, 0xf6, 0x02, 0x08, 0xfa, 0xeb, 0xf7, 0xf6, 0xe2, 0x01,
  0xea, 0xfb, 0xea, 0xeb, 0xf4, 0xf5, 0x00, 0xf0, 0x00, 0xfe, 0x03, 0xf3,
  0xf7, 0x02, 0xe0, 0xed, 0xf3, 0x07, 0xf3, 0xf5, 0xf7, 0xf7, 0xfd, 0xef,
  0xfd, 0x03, 0x05, 0x06, 0xff, 0x0f, 0xf7, 0xf6, 0xfd, 0xec, 0x06, 0xf9,
  0xf0, 0x09, 0xef, 0x0a, 0xf3, 0xed, 0x02, 0xff, 0x0c, 0xfa, 0xfd, 0x02,
  0x02, 0xfa, 0xcb, 0xf3, 0xe4, 0x02, 0xfd, 0xf9, 0xfc, 0x02, 0xfe, 0xe0,
  0x0a, 0xea, 0xff, 0x06, 0xff, 0xdb, 0xf6, 0xcd, 0xd8, 0x00, 0xfe, 0xe2,
  0xf9, 0x04, 0x05, 0xce, 0xe7, 0xf1, 0xdc, 0xef, 0xfc, 0x0b, 0xf7, 0xf8,
  0xf1, 0x02, 0xd9, 0xf6, 0xf1, 0x06, 0xf6, 0x08, 0x0b, 0x11, 0xd4, 0x04,
  0xd9, 0xee, 0x13, 0xeb, 0xfb, 0x08, 0xc9, 0x0c, 0xe5, 0xda, 0xff, 0x01,
  0x09, 0xfd, 0xf0, 0x07, 0x01, 0x01, 0xf9, 0x01, 0xe5, 0x15, 0x06, 0xe8,
  0x18, 0x05, 0xfd, 0xe8, 0x02, 0xf6, 0xdf, 0x08, 0xf4, 0xd4, 0xfe, 0xd8,
  0xd6, 0xfc, 0x0e, 0xdb, 0x09, 0xf8, 0xfa, 0xd9, 0xf6, 0xf1, 0x03, 0xf4,
  0xf5, 0x04, 0xfe, 0xec, 0xee, 0xf5, 0xe0, 0xfc, 0xe5, 0x09, 0xf5, 0x09,
  0x05, 0x15, 0xd7, 0x01, 0xe4, 0xf1, 0x05, 0xeb, 0xff, 0x0d, 0xd2, 0x09,
  0xef, 0xe8, 0x06, 0x08, 0x0e, 0x00, 0xf3, 0x0c, 0x06, 0x07, 0x00, 0xf3,
  0xf2, 0x0d, 0x0c, 0xf5, 0x14, 0x0d, 0xfe, 0xf4, 0xff, 0xfb, 0x1a, 0xe4,
  0x02, 0xe6, 0xf2, 0xff, 0xf3, 0x00, 0xef, 0x04, 0xf0, 0xd6, 0xd7, 0x03,
  0x01, 0xd7, 0xf8, 0x0c, 0x03, 0xe9, 0x01, 0xf6, 0xef, 0xfa, 0xf9, 0x02,
  0xf7, 0xfd, 0xe6, 0xe0, 0xfc, 0xf5, 0x00, 0xfe, 0x03, 0x0a, 0xf5, 0xe5,
  0xfe, 0xcf, 0x0a, 0xde, 0xfe, 0xef, 0xfa, 0xec, 0xe9, 0xfb, 0x01, 0xcd,
  0xf3, 0xf0, 0xff, 0x0a, 0xef, 0xe7, 0xc8, 0xdc, 0xd7, 0xd2, 0xf7, 0x07,
  0x09, 0xf6, 0x1f, 0xdf, 0x05, 0xf5, 0xfd, 0xfb, 0xf5, 0x04, 0xec, 0x00,
  0xec, 0xe3, 0xec, 0xfd, 0x07, 0xe4, 0xf9, 0x08, 0x01, 0xf7, 0x00, 0xfa,
  0xeb, 0xfd, 0x03, 0x00, 0xfa, 0xf1, 0xe8, 0xe9, 0xf9, 0xfa, 0x04, 0x02,
  0x11, 0x01, 0xe0, 0xe9, 0xfe, 0xcf, 0x05, 0xe4, 0xf9, 0xf0, 0x01, 0xe9,
  0xeb, 0xfa, 0x09, 0xcc, 0xff, 0xee, 0x00, 0x10, 0xeb, 0xde, 0xc0, 0xea,
  0xd2, 0xd3, 0xff, 0x05, 0x09, 0x01, 0x00, 0xfd, 0xdf, 0xce, 0xe4, 0xee,
  0xc2, 0xe2, 0x1a, 0xe0, 0x0d, 0xf8, 0x05, 0xfb, 0xee, 0xf4, 0xf1, 0xec,
  0xcc, 0x06, 0xfa, 0xf3, 0xdd, 0x16, 0xeb, 0xd9, 0xf9, 0x15, 0xff, 0xff,
  0x09, 0x0e, 0xfe, 0xea, 0x0c, 0xec, 0xff, 0xf6, 0xe8, 0x0a, 0xe6, 0x09,
  0xfc, 0xf8, 0xfa, 0x11, 0xfc, 0xf3, 0xf6, 0x02, 0x05, 0xe8, 0xe6, 0x0d,
  0xdf, 0x06, 0x03, 0xfb, 0x00, 0x02, 0xe6, 0xf4, 0xf5, 0xf7, 0xf5, 0xf2,
  0xef, 0xe4, 0xdc, 0xf0, 0xdd, 0xf8, 0x10, 0xe7, 0x13, 0xf3, 0xfd, 0x06,
  0xe9, 0xf1, 0xf0, 0x02, 0xe7, 0x01, 0xf5, 0xf4, 0xe4, 0x15, 0xf3, 0xed,
  0xf9, 0x10, 0x07, 0xf9, 0x0c, 0x0d, 0xf6, 0xff, 0x0c, 0xed, 0x05, 0xf0,
  0xf9, 0xfc, 0xf0, 0x05, 0xf0, 0xf3, 0x01, 0x0e, 0x09, 0xf9, 0x01, 0xff,
  0x02, 0xf1, 0x05, 0x08, 0xe7, 0x00, 0xf2, 0xf7, 0x02, 0xf8, 0xed, 0xf8,
  0x09, 0xfb, 0x09, 0x01, 0xf8, 0xcf, 0xf6, 0xee, 0xbd, 0xe7, 0x10, 0xf5,
  0x08, 0xf7, 0x04, 0xfd, 0xfd, 0xf6, 0xec, 0xec, 0xfa, 0xfd, 0x10, 0x05,
  0x11, 0x0e, 0xdb, 0xe7, 0xfa, 0x06, 0xfd, 0xf5, 0x01, 0xe7, 0xf7, 0xf2,
  0xdd, 0xf5, 0xf8, 0xfe, 0xf1, 0x06, 0xeb, 0x10, 0xf8, 0xf3, 0xfc, 0x08,
  0xeb, 0xf9, 0xf3, 0xfc, 0x06, 0xf2, 0xf1, 0x0d, 0xe9, 0x07, 0xfd, 0xe1,
  0xee, 0xf9, 0xf0, 0x05, 0x07, 0xf3, 0xfc, 0x0b, 0xf8, 0xf0, 0x00, 0xff,
  0xdc, 0xfe, 0x09, 0xed, 0x12, 0xf3, 0xfb, 0xff, 0xf0, 0xef, 0xf5, 0x02,
  0xf6, 0xfd, 0x03, 0x0f, 0x10, 0x03, 0xef, 0xf9, 0xf5, 0x08, 0x13, 0xfa,
  0x06, 0xf5, 0xfc, 0x01, 0xee, 0xfe, 0xfa, 0x01, 0xfc, 0xf5, 0xe8, 0x0e,
  0xf8, 0xfb, 0xf6, 0xf4, 0xf4, 0xf8, 0xf7, 0x05, 0xf6, 0xf8, 0xfe, 0x01,
  0xec, 0x02, 0xf7, 0xe5, 0xe1, 0xfc, 0xf6, 0x02, 0x11, 0xee, 0x0e, 0xf7,
  0xfb, 0xcf, 0xff, 0xf1, 0xd5, 0xf2, 0xee, 0xf5, 0x06, 0xe7, 0xee, 0xf4,
  0xf8, 0xeb, 0xe7, 0x08, 0x03, 0x06, 0x09, 0x02, 0x18, 0x06, 0xe1, 0xf5,
  0xf5, 0xf8, 0xfc, 0xf0, 0xff, 0xe8, 0xef, 0xfb, 0xdf, 0x05, 0xfa, 0xe5,
  0xfb, 0x00, 0xe6, 0xfd, 0xf0, 0xda, 0xfb, 0xfc, 0xfc, 0xf0, 0xff, 0x04,
  0x01, 0xfc, 0xf8, 0x0f, 0xe6, 0x07, 0xf5, 0xdf, 0xdd, 0xf5, 0xf7, 0x01,
  0x01, 0xf3, 0xff, 0x09, 0x07, 0xfb, 0x02, 0x03, 0xef, 0x03, 0xe8, 0xf7,
  0x15, 0xef, 0xec, 0xf6, 0xef, 0xe9, 0xed, 0x0e, 0x00, 0xff, 0x06, 0x0e,
  0x1b, 0xf7, 0xf0, 0x01, 0xf8, 0xff, 0x0d, 0x00, 0x01, 0x01, 0xfd, 0x01,
  0xec, 0x00, 0x03, 0xef, 0xfd, 0xea, 0xe8, 0x08, 0xf7, 0x02, 0xfd, 0xe3,
  0x01, 0xf9, 0x09, 0x03, 0xf3, 0xf4, 0xf0, 0xfb, 0xf2, 0x02, 0xeb, 0xde,
  0xda, 0x05, 0xf8, 0xf6, 0x13, 0xee, 0x15, 0xf9, 0xfc, 0xda, 0x06, 0xf3,
  0xd8, 0xfa, 0xd6, 0xff, 0xf6, 0xec, 0xcc, 0xfd, 0xf5, 0xe6, 0x03, 0x02,
  0x0b, 0xf9, 0xfd, 0xe9, 0x04, 0xff, 0xed, 0xf5, 0xf0, 0xfc, 0xf8, 0xf8,
  0xfb, 0xfb, 0xf2, 0xf6, 0xd4, 0xf8, 0xfb, 0x10, 0xf9, 0xf7, 0xe7, 0x05,
  0xe5, 0xde, 0xea, 0xe6, 0x0e, 0xf4, 0xe4, 0xf9, 0x09, 0xfa, 0xf8, 0x10,
  0xe3, 0x09, 0xf9, 0xf0, 0xd8, 0x01, 0x00, 0x02, 0x09, 0xff, 0x01, 0x02,
  0xf0, 0xfd, 0x04, 0xff, 0xe6, 0xfe, 0xd6, 0x0c, 0x0a, 0xf5, 0xcf, 0x01,
  0xf1, 0xf3, 0x05, 0xfd, 0x09, 0xf5, 0xfe, 0xe9, 0x06, 0xf6, 0xf3, 0xf8,
  0xfe, 0xfe, 0x06, 0xff, 0x09, 0xfb, 0xf3, 0xfb, 0xe7, 0x03, 0x03, 0x12,
  0xf4, 0xf6, 0xe9, 0x08, 0xf6, 0x03, 0xe7, 0xdf, 0x0d, 0xf1, 0xe6, 0x02,
  0xf6, 0xf7, 0xe5, 0xff, 0xde, 0x11, 0xfb, 0xfa, 0xdf, 0xff, 0xf4, 0x02,
  0x00, 0xe2, 0xf6, 0xf2, 0x03, 0xea, 0x06, 0xec, 0xf9, 0x02, 0xe0, 0xe3,
  0x06, 0xec, 0xe9, 0xfe, 0xd3, 0xe1, 0xf0, 0x06, 0x0b, 0x0a, 0xfe, 0xff,
  0xf1, 0xff, 0xef, 0x02, 0xe8, 0x0a, 0x0a, 0xff, 0xfd, 0x01, 0xe6, 0x05,
  0xee, 0x01, 0xfa, 0xfd, 0x05, 0xfd, 0xde, 0xf9, 0xea, 0xeb, 0xfa, 0xea,
  0x09, 0xf5, 0xfd, 0x04, 0xf2, 0x08, 0xfb, 0xfb, 0xf7, 0x04, 0xfc, 0xdb,
  0xfe, 0x00, 0xf9, 0xfb, 0xfb, 0xf7, 0xf6, 0xf2, 0xfe, 0xf3, 0x0a, 0xf6,
  0x03, 0xff, 0xf3, 0xed, 0x0d, 0xf1, 0xeb, 0xfe, 0xd5, 0xf5, 0xed, 0x04,
  0xff, 0x06, 0xf9, 0xfa, 0xec, 0xf8, 0xf2, 0xfc, 0xfd, 0x0a, 0x05, 0x05,
  0x06, 0x03, 0xf0, 0x00, 0xfd, 0x03, 0x02, 0x0a, 0xf9, 0xf6, 0xf0, 0x05,
  0xf2, 0xe6, 0xf2, 0xee, 0x08, 0xf9, 0xfa, 0xfb, 0xf5, 0x06, 0x03, 0xfb,
  0xef, 0x0e, 0xff, 0xe2, 0x02, 0x01, 0xfc, 0xfa, 0xd5, 0x03, 0x08, 0xd9,
  0xe8, 0x02, 0xe4, 0x08, 0x01, 0xdc, 0x16, 0x08, 0xe5, 0xfd, 0xf9, 0xed,
  0x0b, 0x07, 0x0d, 0xcf, 0xd5, 0xc6, 0xf7, 0x1e, 0xf7, 0x03, 0x03, 0xe2,
  0x08, 0xcc, 0xc4, 0xca, 0xe7, 0xd0, 0x0e, 0xe1, 0x05, 0xfb, 0xd6, 0xec,
  0xdc, 0x00, 0x0b, 0xce, 0x12, 0x0f, 0xf9, 0x03, 0xc1, 0xed, 0xff, 0xe7,
  0x00, 0xc3, 0x01, 0xfa, 0xee, 0xdc, 0xf9, 0x21, 0x08, 0xb8, 0xe9, 0xe5,
  0xdc, 0xf6, 0x17, 0xe0, 0x09, 0x04, 0x01, 0x08, 0x09, 0xf9, 0x0f, 0x02,
  0xdf, 0x0a, 0x0a, 0xf1, 0x0a, 0x00, 0x17, 0xef, 0xf2, 0xd0, 0xf2, 0x23,
  0x01, 0x08, 0xfb, 0x08, 0xf8, 0xd2, 0xd3, 0xb7, 0xe0, 0xc1, 0x00, 0x00,
  0xfe, 0xf7, 0xe6, 0xe3, 0x01, 0xed, 0x05, 0xc9, 0xfc, 0x06, 0xfa, 0x08,
  0xb6, 0xfb, 0x10, 0xe5, 0x00, 0xae, 0x1f, 0x03, 0xf4, 0xc5, 0xe9, 0x22,
  0xf6, 0xc2, 0x02, 0xfd, 0xc7, 0x00, 0x03, 0xe6, 0xc8, 0xe0, 0xe4, 0x06,
  0xdd, 0xd6, 0x1a, 0xf2, 0x06, 0xfa, 0x09, 0x12, 0xfc, 0x03, 0x08, 0xc8,
  0xd2, 0xf0, 0xfb, 0xe2, 0xd9, 0x02, 0xfc, 0xe1, 0x01, 0xea, 0xe1, 0xdf,
  0x11, 0xfe, 0xfd, 0xcb, 0x02, 0x04, 0xf2, 0x04, 0xd7, 0x02, 0xff, 0x06,
  0x0c, 0x03, 0xfa, 0x0d, 0xfc, 0xf4, 0xe9, 0xf4, 0x07, 0xd4, 0xde, 0x05,
  0xe8, 0xf3, 0x01, 0xfc, 0xec, 0xf9, 0xe8, 0xf4, 0xcf, 0xef, 0x04, 0xdc,
  0xde, 0xf6, 0xdf, 0x03, 0xef, 0xf3, 0x19, 0xec, 0xff, 0xff, 0x0a, 0x0e,
  0xf3, 0x02, 0xfc, 0xe8, 0xda, 0xf0, 0xf9, 0xdd, 0xd2, 0x06, 0xfa, 0xee,
  0xfe, 0xeb, 0xea, 0xdd, 0x0d, 0xf6, 0xff, 0xed, 0x11, 0xfa, 0xf1, 0x09,
  0xe6, 0xfb, 0x07, 0xfe, 0x02, 0x00, 0xf6, 0x05, 0xfc, 0xf7, 0xf4, 0xf8,
  0x04, 0xce, 0xc5, 0x07, 0xfe, 0xff, 0x02, 0xf1, 0xed, 0xf9, 0xec, 0xf9,
  0x03, 0xd2, 0xea, 0xf4, 0x11, 0xdb, 0x06, 0xf3, 0xf7, 0x05, 0xe9, 0xd3,
  0x11, 0xd0, 0xea, 0xe4, 0xd6, 0xd4, 0xd9, 0x0f, 0x11, 0x05, 0x04, 0x03,
  0x00, 0xfd, 0xe3, 0x0c, 0xcd, 0x09, 0x03, 0x12, 0x04, 0x06, 0xd6, 0x07,
  0xc7, 0x12, 0x04, 0xee, 0x07, 0xfa, 0xda, 0x17, 0xd2, 0xdf, 0x03, 0xe8,
  0x1a, 0x06, 0x05, 0x0e, 0xda, 0x12, 0x0d, 0xe8, 0x0b, 0x09, 0x06, 0xd9,
  0x02, 0x0a, 0x0a, 0x0c, 0xfd, 0xf2, 0xd4, 0xff, 0x02, 0xe1, 0x09, 0xe9,
  0xf1, 0x0a, 0xee, 0xdc, 0x0f, 0xdd, 0xe6, 0xe5, 0xf0, 0xea, 0xef, 0x00,
  0x0f, 0x07, 0x0b, 0xfc, 0xf8, 0xf8, 0xe7, 0x0c, 0xe1, 0xfb, 0x06, 0x0a,
  0x07, 0x04, 0xe0, 0x02, 0xd7, 0x0e, 0x06, 0xf2, 0xfb, 0xfc, 0xe9, 0x07,
  0xe9, 0xf7, 0x04, 0xdb, 0x0f, 0x03, 0x01, 0x0a, 0xde, 0x19, 0x03, 0xdb,
  0x0f, 0x06, 0x00, 0xdb, 0x07, 0x1a, 0x05, 0x03, 0xe4, 0xf2, 0xce, 0x00,
  0x03, 0x06, 0x08, 0xfe, 0x13, 0xfc, 0xc7, 0xf3, 0xf2, 0xef, 0xf8, 0xf2,
  0xef, 0xf0, 0x15, 0xfe, 0x0e, 0xfd, 0xd8, 0xef, 0xf9, 0xf6, 0xfa, 0x05,
  0xe7, 0xe9, 0xfd, 0xfe, 0xdf, 0xdf, 0xee, 0x04, 0xee, 0xec, 0xe3, 0x01,
  0x01, 0xeb, 0xf8, 0xf8, 0xf5, 0x15, 0xfa, 0xe4, 0xf4, 0xff, 0xf4, 0xfb,
  0xd5, 0x03, 0xfd, 0xd5, 0x19, 0xdf, 0xfa, 0xfd, 0xfe, 0x03, 0xf5, 0x0a,
  0xe0, 0x02, 0xf1, 0xfc, 0xf3, 0x10, 0xfb, 0x02, 0x0a, 0xe8, 0xd1, 0xfa,
  0xdb, 0x0f, 0xfd, 0x07, 0x02, 0x10, 0x09, 0xde, 0x06, 0x01, 0xd8, 0xe5,
  0xf6, 0xfe, 0x06, 0xec, 0x05, 0xda, 0x09, 0x03, 0xd3, 0xe0, 0x02, 0xe7,
  0x04, 0xf0, 0xd5, 0x09, 0xec, 0xfe, 0x05, 0xfd, 0x05, 0x10, 0xf1, 0xec,
  0xf8, 0xe7, 0xef, 0xe8, 0xf4, 0x0c, 0xef, 0xe7, 0x16, 0xd8, 0x02, 0x06,
  0x08, 0xf7, 0xed, 0x08, 0xc8, 0xce, 0xd7, 0x02, 0xf5, 0xf5, 0xfa, 0xf4,
  0xf1, 0xf9, 0x1c, 0xbc, 0x12, 0xf7, 0xf6, 0xc0, 0xf1, 0xf3, 0xe4, 0xf8,
  0xf7, 0x01, 0xfc, 0x14, 0x20, 0x0a, 0xf3, 0xfc, 0xe2, 0xeb, 0x0b, 0xee,
  0x09, 0x03, 0xef, 0xfc, 0xc5, 0xf7, 0x01, 0xbd, 0xfc, 0x0b, 0xed, 0x1a,
  0xed, 0xf5, 0x05, 0x00, 0xfc, 0x00, 0x1a, 0x06, 0xdf, 0xe8, 0xe3, 0xd1,
  0x02, 0xf7, 0x0f, 0xed, 0x0e, 0xf6, 0xfe, 0xef, 0xeb, 0xc0, 0xf4, 0x08,
  0x09, 0xf6, 0xf9, 0xe0, 0xfa, 0xff, 0x12, 0xd3, 0x09, 0xf7, 0x01, 0xd0,
  0x00, 0xf2, 0xd1, 0xfd, 0x03, 0xfd, 0x01, 0x1c, 0x21, 0x0e, 0xec, 0x00,
  0xed, 0xed, 0x0c, 0xe2, 0xf5, 0xf8, 0xf7, 0x03, 0xe1, 0xfa, 0x04, 0xba,
  0xfc, 0x03, 0xf0, 0x13, 0xfb, 0xe7, 0x0a, 0xf5, 0xf8, 0x04, 0x21, 0x06,
  0xe9, 0xde, 0x04, 0xe7, 0x06, 0xf1, 0x01, 0xf6, 0x09, 0xf4, 0x09, 0xfb,
  0xde, 0xd0, 0xdd, 0x02, 0xf9, 0xd5, 0x0a, 0xe6, 0xed, 0x01, 0x17, 0xc6,
  0x1b, 0xe7, 0xf6, 0xdb, 0xcd, 0xec, 0xe7, 0x01, 0xfe, 0x02, 0x00, 0x00,
  0x04, 0xf9, 0xd7, 0x01, 0xc3, 0x07, 0x0c, 0x09, 0x15, 0x0b, 0xd3, 0x01,
  0xcf, 0xfd, 0x10, 0xe1, 0x07, 0x06, 0xd3, 0x0c, 0xd3, 0xea, 0x01, 0xfa,
  0x0c, 0x0c, 0xff, 0x0b, 0xec, 0x0c, 0x06, 0xdf, 0x0e, 0x20, 0x0c, 0xe7,
  0x0a, 0x0c, 0x05, 0xff, 0xe9, 0xd5, 0xd8, 0x07, 0xfe, 0xd4, 0x03, 0xda,
  0xe6, 0x03, 0x1a, 0xcc, 0x12, 0xe8, 0xf6, 0xec, 0xd0, 0xec, 0xe7, 0x04,
  0x07, 0x07, 0x02, 0x01, 0xfb, 0x00, 0xe4, 0x00, 0xd0, 0x07, 0x06, 0x04,
  0x11, 0x12, 0xe0, 0xfb, 0xf3, 0x00, 0x0a, 0xde, 0x07, 0x0a, 0xe1, 0x0f,
  0xd6, 0xe6, 0x02, 0x03, 0x05, 0x0d, 0x07, 0x0d, 0xef, 0x03, 0x09, 0xe0,
  0x0d, 0x0f, 0x05, 0xfb, 0x13, 0x10, 0x05, 0x02, 0xd9, 0xcf, 0xd1, 0x01,
  0xfc, 0xef, 0x14, 0xe6, 0xfd, 0xfd, 0xfe, 0xc5, 0x1d, 0xdd, 0xe1, 0xfd,
  0xc0, 0xe3, 0xfa, 0x09, 0x0d, 0x01, 0xfe, 0x08, 0xff, 0x03, 0xed, 0x0b,
  0xc3, 0xf6, 0x08, 0x0e, 0x04, 0x08, 0xe2, 0x04, 0xe1, 0xff, 0x0b, 0xfa,
  0xfd, 0xfd, 0xe8, 0x1d, 0xe3, 0xf2, 0x07, 0xe2, 0x06, 0x0a, 0x01, 0x07,
  0xc9, 0x09, 0xfd, 0xcb, 0x12, 0x08, 0xf7, 0xf1, 0xff, 0x13, 0x06, 0x0e,
  0xdd, 0xe7, 0xe1, 0x07, 0xf2, 0xfc, 0x13, 0xf6, 0xfb, 0xfc, 0x01, 0xe2,
  0x0a, 0xf0, 0xf5, 0x01, 0xbb, 0xf3, 0xf6, 0xf8, 0x06, 0xfa, 0xf8, 0xf5,
  0xfb, 0xfe, 0xfe, 0xfb, 0xe9, 0xf1, 0x0d, 0x0a, 0x14, 0xfd, 0xee, 0xf8,
  0xfc, 0x01, 0xff, 0x02, 0xf8, 0xff, 0xf4, 0x17, 0xe5, 0xe7, 0xf5, 0xf6,
  0x06, 0x00, 0x05, 0x06, 0xdf, 0x0f, 0xf2, 0xda, 0x0b, 0x12, 0x05, 0xf1,
  0x03, 0x07, 0x01, 0x07, 0xf9, 0x04, 0xfc, 0xf2, 0xda, 0xfd, 0xf9, 0x0c,
  0xde, 0xd1, 0x06, 0x13, 0xf8, 0x03, 0xfb, 0x03, 0x0d, 0xfd, 0x10, 0xde,
  0xdf, 0xec, 0xeb, 0xf5, 0xf6, 0x00, 0x08, 0xe1, 0x02, 0xe8, 0xee, 0xeb,
  0x03, 0xf6, 0x05, 0xd7, 0xfa, 0xe7, 0xee, 0x0c, 0xd8, 0xfd, 0x07, 0xf1,
  0x0c, 0x0c, 0xe4, 0x07, 0xf0, 0xe5, 0xdd, 0xf8, 0x04, 0xe0, 0xda, 0x07,
  0xd8, 0x04, 0x05, 0x12, 0xf5, 0xf6, 0xdc, 0xf2, 0x02, 0x04, 0x06, 0xe8,
  0xe2, 0x08, 0xf8, 0x04, 0xf8, 0xd9, 0x08, 0x12, 0xf8, 0x0b, 0x04, 0x0e,
  0x0a, 0x06, 0x0f, 0xdf, 0xe7, 0xe7, 0xe6, 0xdd, 0xe7, 0x02, 0x00, 0xdd,
  0x0a, 0xea, 0xec, 0xe8, 0x0a, 0xed, 0x0d, 0xdc, 0x0a, 0xd8, 0xe5, 0x08,
  0xdc, 0x08, 0x04, 0xf2, 0x0a, 0x0a, 0xe7, 0x0a, 0xec, 0xe0, 0xe0, 0xf8,
  0x06, 0xdc, 0xc4, 0x0b, 0xec, 0xff, 0x0a, 0x07, 0x05, 0xfc, 0xe4, 0xec,
  0xf1, 0xfa, 0x07, 0xf7, 0xde, 0xb7, 0xfd, 0x03, 0xb4, 0xe3, 0x0d, 0x01,
  0x03, 0xf5, 0xfe, 0xf1, 0x09, 0xf7, 0x09, 0xda, 0xf4, 0x02, 0x0f, 0x00,
  0xfa, 0xe6, 0xe9, 0xe6, 0xee, 0xf5, 0xfd, 0xfb, 0x1d, 0x0e, 0xf9, 0xd9,
  0xdd, 0x07, 0x0b, 0x00, 0xde, 0x0b, 0xeb, 0xfa, 0xfe, 0x01, 0xf1, 0x0f,
  0x0b, 0xf0, 0xe7, 0xfd, 0x0d, 0xfa, 0xfa, 0x0d, 0xdf, 0x0a, 0x06, 0x08,
  0xea, 0x02, 0xf5, 0x02, 0xf0, 0xf4, 0xfe, 0xfc, 0xef, 0xbf, 0x03, 0xf7,
  0xc1, 0xff, 0x1e, 0xf4, 0x09, 0xef, 0xf2, 0xeb, 0x06, 0xed, 0x0b, 0xed,
  0xf9, 0xfe, 0x05, 0xfe, 0xf3, 0xeb, 0xe2, 0xf2, 0xe9, 0x03, 0xf3, 0xf8,
  0x12, 0x0f, 0xe8, 0xf4, 0xd3, 0xff, 0x0b, 0xf3, 0xfe, 0x05, 0xeb, 0x00,
  0xf3, 0x0c, 0x01, 0x00, 0x0f, 0xfa, 0xf1, 0x0d, 0xf7, 0xed, 0x09, 0x14,
  0xfd, 0x01, 0x02, 0x05, 0xf0, 0x0f, 0xf8, 0xfa, 0xf9, 0xe1, 0xd7, 0xf2,
  0x0d, 0xe8, 0xf5, 0xf4, 0xf2, 0x06, 0xea, 0xd7, 0x08, 0xe6, 0xfc, 0xda,
  0xed, 0xe8, 0xf8, 0xfb, 0x05, 0x12, 0x00, 0x03, 0xf1, 0xf0, 0xe1, 0x04,
  0xda, 0x0d, 0x05, 0x04, 0x08, 0x0f, 0xd5, 0x09, 0xc2, 0x0b, 0xf2, 0xe0,
  0x02, 0x00, 0xd9, 0xfb, 0xdf, 0x08, 0xf9, 0xfd, 0x17, 0x05, 0xfd, 0x07,
  0xe7, 0x04, 0x00, 0xe8, 0x09, 0xeb, 0x0b, 0xd0, 0x0c, 0x13, 0x06, 0x0a,
  0xf2, 0xf7, 0xce, 0xf4, 0xff, 0xe2, 0xf8, 0xe3, 0xe8, 0x04, 0xf6, 0xd5,
  0x07, 0xf4, 0x03, 0xdc, 0xf2, 0xf2, 0xfd, 0xee, 0x04, 0x0f, 0xfd, 0x05,
  0xfc, 0xed, 0xe7, 0x06, 0xd7, 0x08, 0xfb, 0x08, 0x04, 0x0c, 0xd6, 0x01,
  0xd4, 0x0c, 0xf7, 0xe3, 0x02, 0x05, 0xea, 0xf9, 0xed, 0x06, 0x00, 0xff,
  0x13, 0x07, 0xff, 0x0e, 0xfa, 0x09, 0x08, 0xe6, 0x0a, 0xf2, 0x10, 0xe6,
  0x0b, 0x13, 0x05, 0xff, 0xf3, 0xe8, 0xd1, 0xed, 0xfc, 0xe6, 0xdc, 0x04,
  0xf0, 0x06, 0xf0, 0xdd, 0x0b, 0xe6, 0x00, 0x00, 0xdd, 0xef, 0xe5, 0x04,
  0xf3, 0x14, 0xee, 0xde, 0xee, 0xf3, 0xeb, 0x07, 0xe8, 0x01, 0xfc, 0x00,
  0x0a, 0x12, 0xea, 0xff, 0xfd, 0xf5, 0xf9, 0xd7, 0x02, 0xf7, 0xec, 0x0c,
  0xea, 0xf8, 0xfe, 0xfd, 0x15, 0xfa, 0x0b, 0x07, 0xe8, 0x02, 0xf3, 0xe6,
  0x10, 0xe7, 0x05, 0xd6, 0x0d, 0x04, 0xf9, 0xfe, 0xed, 0xed, 0xe8, 0xe1,
  0xf9, 0xf7, 0xde, 0x01, 0xfa, 0x01, 0xf7, 0xe7, 0x0b, 0xee, 0x0d, 0x04,
  0xdd, 0xf6, 0xe2, 0xfb, 0xed, 0x18, 0xf6, 0xe5, 0xe8, 0xf4, 0x02, 0xf6,
  0xfc, 0xf4, 0x03, 0x05, 0x08, 0x13, 0xfa, 0xf9, 0x0d, 0xf9, 0xe7, 0xe3,
  0xfe, 0xf8, 0x02, 0x01, 0xf3, 0xf4, 0xf9, 0x0c, 0x18, 0x00, 0x05, 0xee,
  0xf4, 0x05, 0xea, 0xee, 0x05, 0xe8, 0xfb, 0xdd, 0x10, 0xf6, 0xf8, 0xfd,
  0x16, 0xfc, 0x06, 0xf3, 0xf3, 0xf8, 0xf1, 0xea, 0xeb, 0xf1, 0xf1, 0xf8,
  0xe6, 0x0a, 0x10, 0xe2, 0x01, 0xf9, 0xd2, 0xf7, 0xe7, 0xf5, 0x09, 0x0d,
  0x0f, 0xfd, 0xe9, 0xf3, 0xf6, 0xf8, 0xdc, 0xe2, 0xd3, 0xe2, 0xfd, 0xf9,
  0xe2, 0xff, 0xf1, 0xd3, 0xf3, 0x05, 0xe7, 0xdf, 0xfc, 0xee, 0x01, 0xfa,
  0xe9, 0xf4, 0xfc, 0xf0, 0x0c, 0xf0, 0xf1, 0x09, 0xdf, 0xe8, 0xf9, 0xdf,
  0xf6, 0xf9, 0xe9, 0xef, 0x0a, 0x04, 0xf5, 0xeb, 0x09, 0xed, 0xf2, 0xee,
  0xea, 0x07, 0xef, 0xe8, 0xe7, 0x0e, 0x07, 0xdd, 0x15, 0xf6, 0xe0, 0xf9,
  0xfe, 0xf6, 0x08, 0x10, 0x1a, 0xfc, 0xe8, 0x04, 0xee, 0xff, 0xe2, 0xe5,
  0xd8, 0xe1, 0xf4, 0x09, 0xd6, 0x08, 0x02, 0xd9, 0x08, 0xf8, 0xf2, 0xd1,
  0xfa, 0xfb, 0x0e, 0x01, 0xe6, 0x05, 0x08, 0xfb, 0xf5, 0xf6, 0xf5, 0x04,
  0xe4, 0xd2, 0xf2, 0xee, 0xe4, 0x01, 0xf6, 0xf1, 0x07, 0xd8, 0xf5, 0x12,
  0x06, 0xfc, 0x09, 0xe1, 0x07, 0x02, 0xc3, 0xeb, 0xf0, 0xd2, 0xd6, 0xce,
  0xeb, 0xd5, 0xf6, 0x0e, 0x08, 0x00, 0x0a, 0x05, 0x16, 0xfd, 0xde, 0x03,
  0xdb, 0xfa, 0x01, 0x01, 0xda, 0xf3, 0xea, 0x06, 0xe0, 0xfa, 0xf7, 0xf5,
  0x09, 0xea, 0xf6, 0x02, 0xe3, 0xeb, 0xfd, 0xd0, 0xff, 0x03, 0xfb, 0xf7,
  0xd8, 0x09, 0x1f, 0xd5, 0x0f, 0xe2, 0xf7, 0xfc, 0xdc, 0x00, 0x07, 0x07,
  0xfb, 0xf4, 0xf2, 0x19, 0xfd, 0x01, 0xff, 0xf4, 0xff, 0xf6, 0xac, 0x0f,
  0xf0, 0xf3, 0xe3, 0xe2, 0xfc, 0xf6, 0x23, 0xf0, 0x07, 0xfb, 0xf6, 0x01,
  0x1f, 0xf0, 0xf2, 0xfe, 0xeb, 0xfc, 0xfe, 0x02, 0xe3, 0xf8, 0xf5, 0x03,
  0xd4, 0xf6, 0xfb, 0x13, 0xf7, 0xf3, 0xf3, 0xf2, 0xf4, 0x0e, 0xfa, 0xda,
  0xff, 0x04, 0xf3, 0x0e, 0xd9, 0x03, 0x23, 0xbe, 0x08, 0xec, 0xfd, 0x1e,
  0xe9, 0xff, 0xf9, 0x07, 0x00, 0x04, 0xfc, 0xfe, 0xfe, 0x0a, 0xe3, 0xf2,
  0x11, 0x03, 0xbe, 0x05, 0xd3, 0xf6, 0xec, 0x04, 0x00, 0xfa, 0xf6, 0x07,
  0xef, 0xdf, 0xe1, 0xe9, 0xdf, 0xf9, 0x06, 0xfe, 0x05, 0xe0, 0xe3, 0xf2,
  0xc6, 0xdd, 0x04, 0x09, 0x03, 0xea, 0xed, 0x08, 0xfb, 0xca, 0x02, 0xe0,
  0xff, 0x02, 0xdd, 0xd6, 0xdd, 0xf5, 0x04, 0xcb, 0xe4, 0xf4, 0xfe, 0xf4,
  0xfa, 0xf1, 0xde, 0xf6, 0xde, 0xcd, 0xf7, 0xda, 0x02, 0x0b, 0x05, 0xef,
  0xf7, 0x10, 0xe9, 0xfd, 0x10, 0xf8, 0xbf, 0x09, 0xc7, 0xf1, 0xf9, 0x07,
  0x03, 0x0c, 0xfc, 0xfe, 0xea, 0xe3, 0xe8, 0xe7, 0xe4, 0xfb, 0x0a, 0xfc,
  0x02, 0xd5, 0xe4, 0xf7, 0xd8, 0xda, 0x07, 0xf9, 0x10, 0xef, 0xf9, 0x15,
  0xf6, 0xd8, 0x0f, 0xdc, 0x09, 0x05, 0xda, 0xe3, 0xdb, 0xf8, 0x04, 0xd0,
  0xf9, 0xf1, 0xfa, 0x05, 0xf2, 0xe3, 0xdf, 0x00, 0xd6, 0xd4, 0xec, 0xdb,
  0x1c, 0x01, 0xf4, 0xeb, 0xeb, 0x02, 0xe6, 0xf0, 0x02, 0xed, 0xf3, 0xfd,
  0xe7, 0x00, 0x09, 0xeb, 0x04, 0x04, 0x01, 0xf3, 0xde, 0xf7, 0xdc, 0xe4,
  0xd8, 0x0b, 0x05, 0xe8, 0xfd, 0xfb, 0xd8, 0xe5, 0xd3, 0xf1, 0xfb, 0xf2,
  0x00, 0xd3, 0xea, 0xf3, 0xfe, 0x06, 0xef, 0xf8, 0xf8, 0xfe, 0xe6, 0xfd,
  0xed, 0xdd, 0xdd, 0xf0, 0x02, 0xdd, 0xe6, 0x02, 0xd9, 0xf0, 0xf9, 0x0c,
  0xff, 0xff, 0xda, 0xe0, 0x11, 0x0c, 0xed, 0xe0, 0xea, 0x01, 0xe5, 0x02,
  0x00, 0xe0, 0x01, 0x03, 0xf4, 0x11, 0x08, 0x09, 0x08, 0x0e, 0x03, 0xe4,
  0xe7, 0xf4, 0xd9, 0xe2, 0xda, 0xf9, 0x08, 0xdf, 0x0c, 0xf7, 0xdf, 0xf2,
  0xd1, 0xf4, 0x04, 0xe0, 0x0e, 0xd9, 0xe5, 0x07, 0xf2, 0x0f, 0x01, 0xf5,
  0x11, 0x01, 0xe1, 0x06, 0xf5, 0xd7, 0xd7, 0xef, 0x0a, 0xf9, 0xd6, 0x02,
  0xe8, 0xe6, 0x0c, 0x0e, 0x03, 0xf6, 0xd6, 0xe1, 0x0b, 0xe6, 0x11, 0xf2,
  0x02, 0xe4, 0x06, 0xed, 0xf6, 0x07, 0xe8, 0xf9, 0x02, 0xe3, 0xc5, 0xea,
  0xf3, 0xcf, 0xe0, 0x12, 0x02, 0xf3, 0x09, 0x02, 0xfe, 0xfe, 0xf3, 0x02,
  0xef, 0x05, 0xec, 0xf7, 0xfc, 0xec, 0xf0, 0x03, 0xf5, 0x03, 0xf6, 0xd1,
  0x02, 0xd5, 0xf0, 0xe7, 0xe7, 0xe1, 0x00, 0xe3, 0xeb, 0x00, 0x02, 0xea,
  0xf1, 0xf0, 0x15, 0x09, 0xf8, 0xf4, 0xd1, 0xd4, 0xcb, 0xe5, 0x04, 0x02,
  0x04, 0xee, 0x0a, 0xfb, 0x0e, 0xe4, 0x03, 0xdb, 0xf7, 0x0d, 0xeb, 0xf6,
  0xfe, 0xe1, 0xcc, 0xf6, 0xf8, 0xd3, 0xd5, 0x15, 0x12, 0x01, 0x15, 0x11,
  0xff, 0xf8, 0xf1, 0x06, 0xf4, 0x0a, 0xf3, 0x00, 0xf8, 0xfa, 0xf1, 0x0b,
  0xfe, 0x0d, 0xfb, 0xdc, 0x06, 0xc7, 0x02, 0xed, 0xf4, 0xe7, 0x09, 0xe4,
  0xf3, 0x02, 0x0e, 0xe4, 0xf0, 0xfd, 0x0c, 0x06, 0x02, 0xfc, 0xc7, 0xe1,
  0xc8, 0xe9, 0x09, 0x0b, 0x11, 0xe5, 0x0c, 0xf2, 0xfd, 0xe1, 0x05, 0xef,
  0xfc, 0x03, 0xe2, 0xf6, 0xee, 0xdb, 0xd3, 0xe9, 0xf2, 0xcb, 0xe2, 0xfe,
  0xfc, 0xe4, 0x06, 0x00, 0xf7, 0xf8, 0xf1, 0x00, 0xf4, 0x05, 0xeb, 0xe7,
  0xfd, 0xdf, 0xf0, 0x04, 0xf5, 0x05, 0xf1, 0xd2, 0xfc, 0xdc, 0xf4, 0xe1,
  0xe7, 0xd9, 0xfa, 0xe9, 0xea, 0x02, 0x06, 0xed, 0xfb, 0xeb, 0x0b, 0x0c,
  0xeb, 0xf2, 0xd5, 0xe0, 0xcc, 0xe8, 0x04, 0x04, 0x05, 0xf3, 0x15, 0x00,
  0x0c, 0xe8, 0x04, 0xe6, 0xf7, 0x11, 0xce, 0xf5, 0xf6, 0xda, 0xda, 0xf7,
  0xf5, 0xca, 0xd6, 0x19, 0x0b, 0xf4, 0x0f, 0x07, 0x01, 0x03, 0xee, 0x07,
  0xef, 0x04, 0xf2, 0xf8, 0xf2, 0xeb, 0xf3, 0x0c, 0xf4, 0x0e, 0x00, 0xe0,
  0x0f, 0xc2, 0xf8, 0xe3, 0xf5, 0xd8, 0x01, 0xe6, 0xf0, 0x0c, 0x16, 0xe5,
  0xf5, 0xf5, 0x0a, 0x10, 0xff, 0xf4, 0xc4, 0xe2, 0xc1, 0xe3, 0x0b, 0x0b,
  0x08, 0xe9, 0x08, 0xf2, 0x05, 0xf1, 0x13, 0xf1, 0xfa, 0x03, 0xed, 0xfa,
  0xeb, 0xcc, 0xc9, 0xfa, 0xed, 0xcd, 0xea, 0x10, 0x0b, 0xd7, 0x0a, 0xfd,
  0xfd, 0xfa, 0xf5, 0x00, 0xf1, 0xf9, 0xe6, 0xf7, 0xe6, 0xdb, 0xf6, 0x01,
  0xfe, 0x02, 0xfa, 0xf4, 0xfd, 0xd0, 0xf1, 0xe0, 0xf6, 0xe6, 0xf8, 0xd2,
  0xdc, 0x03, 0x05, 0xdf, 0xec, 0xf5, 0x19, 0xff, 0xfd, 0xef, 0xe0, 0xf5,
  0xce, 0xef, 0x01, 0x02, 0x01, 0xf3, 0x0e, 0x01, 0x09, 0xf5, 0x0f, 0xf3,
  0xfd, 0x09, 0xd3, 0xfe, 0xf0, 0xcb, 0xc9, 0x03, 0xf9, 0xde, 0xec, 0x11,
  0x0d, 0xe0, 0x09, 0x01, 0xfe, 0xf8, 0xf7, 0x07, 0xf9, 0xf9, 0xf3, 0xfe,
  0xf1, 0xe4, 0xf3, 0xff, 0xf6, 0x00, 0xf3, 0x0e, 0x06, 0xcf, 0xff, 0xf1,
  0xf1, 0xde, 0xfc, 0xd3, 0xe2, 0xfd, 0x0a, 0xe9, 0xec, 0x00, 0x17, 0x05,
  0xfd, 0xf8, 0xdc, 0xfd, 0xcf, 0xfa, 0x02, 0x05, 0xee, 0x09, 0xfc, 0xe9,
  0xd3, 0x04, 0xed, 0x0c, 0xfe, 0xde, 0x13, 0x19, 0xea, 0xff, 0xfc, 0xfd,
  0x14, 0x09, 0x15, 0xe3, 0xda, 0xbc, 0xf1, 0xef, 0xf2, 0xfa, 0x0b, 0xe3,
  0x03, 0xd8, 0xd3, 0xd5, 0xf4, 0xde, 0x08, 0xe3, 0x0a, 0xf0, 0xc3, 0x09,
  0xce, 0x07, 0x0d, 0xbf, 0x0f, 0x13, 0xd8, 0x0b, 0xe2, 0xe7, 0xdc, 0xe9,
  0x04, 0xd9, 0xe4, 0x05, 0xcd, 0xed, 0x04, 0x0f, 0xeb, 0xd5, 0xd9, 0xe9,
  0xef, 0x0b, 0x07, 0xf1, 0xdd, 0x09, 0xe4, 0x06, 0x09, 0xe3, 0x10, 0x0e,
  0xe9, 0x0e, 0x0d, 0x0b, 0x16, 0x07, 0x11, 0xe1, 0xd6, 0xd1, 0xe8, 0xe7,
  0xea, 0xf8, 0x0c, 0xe1, 0x05, 0xca, 0xe0, 0xd6, 0xf5, 0xce, 0x0d, 0xe5,
  0x08, 0xe1, 0xe2, 0x0b, 0xdb, 0x08, 0x09, 0xdf, 0x10, 0x0e, 0xda, 0x13,
  0xda, 0xe5, 0xdd, 0xe8, 0x0b, 0xec, 0xc5, 0x16, 0xf0, 0xdf, 0x02, 0xff,
  0x00, 0xe0, 0xde, 0xe0, 0xef, 0xd7, 0xfa, 0x12, 0x01, 0x02, 0xfd, 0xdf,
  0x0e, 0xf7, 0xc7, 0x0a, 0xe7, 0xcc, 0xcb, 0xd7, 0x05, 0xe6, 0xdf, 0xfa,
  0x01, 0xf9, 0x0f, 0x07, 0x0f, 0x00, 0x0d, 0x06, 0xe6, 0xf2, 0x0f, 0x01,
  0xcf, 0xf4, 0x0f, 0x01, 0x02, 0x09, 0xf8, 0xd6, 0xf9, 0xd2, 0xfd, 0xeb,
  0x07, 0xe8, 0x04, 0xcd, 0xf0, 0xfa, 0xff, 0xec, 0xc2, 0x03, 0x00, 0xc6,
  0x13, 0xdb, 0xd1, 0xcf, 0xdf, 0xf3, 0xfa, 0x02, 0xf0, 0xdb, 0xfa, 0x11,
  0x0b, 0x00, 0xfd, 0xf2, 0x14, 0xff, 0xc4, 0x0a, 0xeb, 0xdb, 0xdb, 0xed,
  0x10, 0xf3, 0xfc, 0x04, 0xfc, 0xff, 0x03, 0x0c, 0x06, 0xff, 0x0a, 0x01,
  0xf6, 0x03, 0x10, 0x04, 0xe4, 0xfe, 0x03, 0x00, 0xfb, 0x09, 0x02, 0xfc,
  0xfb, 0xe0, 0xf5, 0x00, 0x0a, 0xf4, 0x09, 0xc5, 0x0a, 0xfb, 0xfe, 0x03,
  0xd1, 0xfb, 0x08, 0xdd, 0x0f, 0xfa, 0xe5, 0xe9, 0xdd, 0x01, 0x09, 0xfa,
  0xf1, 0xdf, 0xdd, 0x0a, 0xf5, 0xf2, 0xfc, 0xe8, 0xeb, 0xfe, 0xfd, 0xde,
  0x04, 0xfb, 0xf5, 0xec, 0xd7, 0xfc, 0xe9, 0xf8, 0xfe, 0x0f, 0xe6, 0xe6,
  0x02, 0x06, 0xe1, 0xf2, 0xe7, 0x0e, 0x09, 0x0a, 0x13, 0x0e, 0xdb, 0xfd,
  0xd9, 0xd5, 0x0f, 0xea, 0xf9, 0xff, 0xd7, 0x05, 0xd9, 0xf4, 0x02, 0x08,
  0xfe, 0x00, 0xf5, 0x02, 0xf9, 0x0a, 0xef, 0xe1, 0xfe, 0x13, 0x02, 0xfe,
  0x11, 0x05, 0xfd, 0xfd, 0xe6, 0xf9, 0xde, 0x03, 0xf5, 0xfb, 0xfe, 0xf4,
  0xf7, 0xec, 0x02, 0xf4, 0x00, 0xfc, 0x03, 0xff, 0xd4, 0xfa, 0xf1, 0xf9,
  0xf6, 0x08, 0xe9, 0xe2, 0xf6, 0x0e, 0xf7, 0xe4, 0xf5, 0x06, 0x0a, 0x0b,
  0x0a, 0x08, 0xf2, 0xed, 0x0a, 0xe3, 0x0b, 0xf8, 0xeb, 0x04, 0xec, 0x04,
  0xeb, 0xf1, 0xfc, 0x0e, 0xff, 0xfd, 0xfc, 0x06, 0x02, 0x0b, 0xe9, 0xd4,
  0xf4, 0x17, 0x0e, 0xfa, 0x16, 0x08, 0xfd, 0xff, 0xd5, 0xf4, 0xc9, 0xfd,
  0x07, 0x0b, 0xff, 0x01, 0x16, 0xfe, 0xb9, 0xd6, 0xdc, 0xf0, 0xdc, 0xf7,
  0xd9, 0xf1, 0x06, 0xfa, 0x01, 0xfd, 0xde, 0xfb, 0xf9, 0xfa, 0xfd, 0x0c,
  0xe0, 0xf0, 0x15, 0x03, 0xd8, 0xf5, 0xf0, 0x10, 0xfa, 0xff, 0xf5, 0x05,
  0x03, 0xe7, 0xff, 0xe0, 0xf8, 0x04, 0xfb, 0xd4, 0xf9, 0x03, 0x06, 0xf2,
  0xbc, 0x15, 0xfa, 0xcc, 0x13, 0xe4, 0xf3, 0xf8, 0x0d, 0xfe, 0xff, 0xf9,
  0xe2, 0x0a, 0xdd, 0xf9, 0xfa, 0x09, 0xf4, 0x06, 0x10, 0xef, 0xb9, 0xf4,
  0xcf, 0xfe, 0xed, 0x01, 0xe1, 0x07, 0x01, 0xe5, 0xfc, 0xfd, 0xea, 0xf0,
  0xf0, 0x07, 0x06, 0xee, 0xfb, 0xdd, 0x0e, 0x04, 0xde, 0xe5, 0xfa, 0xea,
  0x07, 0xe7, 0xed, 0x07, 0xf4, 0xfe, 0x01, 0xe1, 0x03, 0x09, 0xfd, 0xe9,
  0xf0, 0xf2, 0xf7, 0xef, 0xda, 0x11, 0xef, 0xd1, 0x15, 0xe5, 0x0a, 0x07,
  0x10, 0xf9, 0xf9, 0xfa, 0x03, 0xc9, 0xe0, 0x10, 0x0c, 0xf6, 0x03, 0xe1,
  0x0a, 0x04, 0xc6, 0xf4, 0xf5, 0xcc, 0xb3, 0xdf, 0xcd, 0xc9, 0xe9, 0x19,
  0x10, 0x08, 0x14, 0x0c, 0x14, 0xff, 0xed, 0x0c, 0xd8, 0x0c, 0x0f, 0x0c,
  0xd5, 0xf8, 0xe6, 0x0e, 0xed, 0x0d, 0x13, 0xfe, 0x00, 0xe0, 0xea, 0xff,
  0xe1, 0xde, 0x02, 0xcd, 0xfe, 0x0b, 0xfc, 0x08, 0xc0, 0x17, 0x0e, 0xbd,
  0x0b, 0xf8, 0xe3, 0xca, 0xde, 0x10, 0x0e, 0x04, 0xfb, 0xe6, 0xdf, 0x16,
  0xff, 0xff, 0x01, 0xf3, 0x06, 0xfb, 0xbc, 0x0e, 0xe9, 0xe6, 0xd9, 0xf7,
  0xe3, 0xf4, 0x00, 0x03, 0x0a, 0xfd, 0x05, 0x01, 0x15, 0xff, 0xfa, 0x01,
  0xe9, 0x04, 0x01, 0x06, 0xed, 0x10, 0xf5, 0xfc, 0xf2, 0xff, 0x10, 0x0c,
  0xfb, 0xf3, 0xf2, 0xfd, 0xec, 0xec, 0xfc, 0xc5, 0x0d, 0xfe, 0xf8, 0x0b,
  0xcf, 0x0b, 0x13, 0xb6, 0xf6, 0x0d, 0xf6, 0xf5, 0xe0, 0x08, 0x03, 0x06,
  0xc8, 0xc0, 0xd8, 0xdf, 0xd8, 0xb9, 0xdc, 0xd9, 0xb8, 0xa4, 0xd8, 0xd3,
  0xeb, 0xd8, 0xcb, 0xd7, 0xca, 0xb3, 0xdd, 0xdd, 0xea, 0xdc, 0xe5, 0xde,
  0xe8, 0xf6, 0xb6, 0xa2, 0x9b, 0xdf, 0xed, 0xca, 0xcf, 0xdb, 0xb5, 0xc8,
  0xd3, 0xe5, 0xed, 0xce, 0xae, 0xb3, 0xbd, 0xea, 0xc1, 0xdb, 0xb9, 0xcb,
  0xe0, 0x9e, 0xcb, 0xbc, 0xaf, 0xd3, 0xe2, 0xbd, 0xcc, 0xe2, 0xc1, 0xca,
  0xcc, 0xd5, 0xcb, 0xe8, 0xb8, 0xa1, 0xdb, 0xde, 0xea, 0xa4, 0xdf, 0xca,
  0xb0, 0xb5, 0xc9, 0xc3, 0xf2, 0xd2, 0xc5, 0xc6, 0xc7, 0xb2, 0xd0, 0xe9,
  0xfb, 0xeb, 0xf6, 0xe7, 0xf3, 0xf4, 0xbb, 0xa0, 0x81, 0xf4, 0xee, 0xb8,
  0xd0, 0xe7, 0xa8, 0xbf, 0xd4, 0xf3, 0xfa, 0xc9, 0x94, 0xad, 0xaf, 0xf3,
  0xae, 0xcc, 0xd5, 0xbd, 0xed, 0x95, 0xcf, 0xdc, 0x95, 0xb1, 0xdd, 0xb0,
  0xbb, 0xf7, 0xcb, 0xb6, 0xc9, 0xd7, 0xc9, 0xed, 0xce, 0xc1, 0xdc, 0xe2,
  0xd6, 0xbf, 0xdb, 0xd1, 0xc0, 0xa4, 0xd0, 0xd1, 0xe4, 0xdd, 0xc4, 0xd1,
  0xce, 0xaf, 0xd6, 0xd1, 0xe9, 0xd4, 0xcf, 0xd7, 0xdd, 0xf1, 0xc4, 0x9e,
  0x97, 0xd4, 0xe7, 0xd3, 0xd6, 0xd9, 0xb4, 0xbe, 0xdc, 0xe8, 0xe1, 0xc6,
  0xb3, 0xb7, 0xbd, 0xe3, 0xc8, 0xd6, 0xbf, 0xcc, 0xdd, 0x9c, 0xcc, 0xc1,
  0xb4, 0xd3, 0xe1, 0xc7, 0xcf, 0xe4, 0xca, 0xca, 0xd0, 0xe0, 0xbe, 0xe6,
  0xba, 0x9f, 0xd3, 0xd3, 0xc9, 0xb6, 0xdf, 0xc5, 0xb0, 0x9f, 0xcf, 0xc9,
  0xd6, 0xce, 0xc8, 0xcb, 0xc4, 0xba, 0xd4, 0xcc, 0xde, 0xe1, 0xd0, 0xcf,
  0xe5, 0xfc, 0xc2, 0x95, 0x8f, 0xd9, 0xe1, 0xa9, 0xc6, 0xe0, 0xa5, 0xb7,
  0xd6, 0xdc, 0xe6, 0xd0, 0x9c, 0xb1, 0xb2, 0xe8, 0xb2, 0xd6, 0xb2, 0xc1,
  0xe6, 0x91, 0xc9, 0xb9, 0xa2, 0xb8, 0xe0, 0xb7, 0xbc, 0xde, 0xc6, 0xb9,
  0xd5, 0xd7, 0xbf, 0xe0, 0xc8, 0xc2, 0xd7, 0xdc, 0xd1, 0xbd, 0xe5, 0xde,
  0xc4, 0x9f, 0xcb, 0xd4, 0xe7, 0xd7, 0xc7, 0xcf, 0xcd, 0xb8, 0xd3, 0xd2,
  0xe8, 0xda, 0xd7, 0xe2, 0xe2, 0xf6, 0xb7, 0xa1, 0x9b, 0xdf, 0xe5, 0xcc,
  0xd4, 0xe2, 0xac, 0xc6, 0xdb, 0xe9, 0xe1, 0xc7, 0xb2, 0xb6, 0xbc, 0xde,
  0xb8, 0xd6, 0xbf, 0xd4, 0xe5, 0xa2, 0xcc, 0xbc, 0xb9, 0xd8, 0xdc, 0xc4,
  0xc3, 0xd8, 0xbd, 0xcb, 0xc8, 0xdc, 0xc3, 0xe7, 0xbf, 0xaa, 0xd6, 0xe1,
  0xe0, 0xb3, 0xea, 0xce, 0xb3, 0xad, 0xc6, 0xbd, 0xee, 0xcc, 0xc7, 0xc6,
  0xc6, 0xb0, 0xcd, 0xe3, 0xef, 0xf3, 0xeb, 0xe7, 0xf5, 0xf7, 0xbd, 0x9a,
  0x83, 0xec, 0xf6, 0xab, 0xd1, 0xe3, 0xa8, 0xbb, 0xcd, 0xf5, 0xf6, 0xc7,
  0x94, 0xb4, 0xaf, 0xea, 0xba, 0xd4, 0xce, 0xc7, 0xef, 0x8d, 0xd4, 0xd2,
  0x95, 0xb7, 0xe0, 0xb4, 0xb7, 0xf0, 0xc3, 0xc2, 0xc8, 0xd3, 0xc8, 0xec,
  0xcc, 0xc1, 0xe5, 0xde, 0xd0, 0xc4, 0xe1, 0xdd, 0xbb, 0xab, 0xd5, 0xd7,
  0xdd, 0xd7, 0xca, 0xcc, 0xc7, 0xaf, 0xd8, 0xcc, 0xed, 0xda, 0xda, 0xd5,
  0xe3, 0xfc, 0xb8, 0xa1, 0xa1, 0xd2, 0xec, 0xce, 0xdc, 0xd8, 0xb3, 0xbc,
  0xdc, 0xe5, 0xdc, 0xc7, 0xae, 0xb4, 0xc3, 0xe5, 0xc2, 0xdf, 0xbc, 0xcc,
  0xdb, 0x99, 0xcf, 0xb7, 0xbc, 0xd2, 0xe4, 0xc1, 0xc3, 0xe0, 0xc8, 0xd3,
  0xd4, 0xd7, 0xc1, 0xed, 0xc3, 0xac, 0xcc, 0xd9, 0xc6, 0xa8, 0xe1, 0xcc,
  0xaf, 0x94, 0xc9, 0xc6, 0xce, 0xcd, 0xca, 0xd1, 0xc6, 0xbb, 0xd7, 0xca,
  0xda, 0xdc, 0xd2, 0xce, 0xde, 0xf4, 0xbb, 0x99, 0x93, 0xd3, 0xde, 0xb4,
  0xc2, 0xe2, 0xae, 0xb0, 0xd1, 0xe5, 0xdb, 0xd3, 0x9c, 0xac, 0xbe, 0xe1,
  0xbc, 0xd1, 0xb7, 0xc5, 0xe6, 0x8e, 0xd0, 0xb4, 0x98, 0xb4, 0xd8, 0xba,
  0xc0, 0xe5, 0xce, 0xc5, 0xd1, 0xe0, 0xb9, 0xe2, 0xc0, 0xbe, 0xd7, 0xde,
  0xe5, 0xb6, 0xdf, 0xd6, 0xbc, 0xad, 0xd0, 0xcc, 0xe7, 0xdb, 0xcb, 0xd3,
  0xc6, 0xb0, 0xd4, 0xde, 0xed, 0xec, 0xe9, 0xe7, 0xe2, 0xf9, 0xbd, 0xa9,
  0x97, 0xe9, 0xf3, 0xc7, 0xd8, 0xdd, 0xb4, 0xbf, 0xda, 0xf5, 0xef, 0xc9,
  0xb2, 0xb0, 0xbd, 0xe8, 0xb7, 0xd5, 0xc7, 0xcd, 0xeb, 0x9b, 0xcd, 0xcf,
  0xba, 0xd9, 0xe8, 0xc4, 0xca, 0xeb, 0xca, 0xd2, 0xd3, 0xd9, 0xc3, 0xe9,
  0xbe, 0x9e, 0xd5, 0xd4, 0xde, 0xad, 0xe1, 0xc9, 0xad, 0xa9, 0xca, 0xc4,
  0xeb, 0xd5, 0xc9, 0xd1, 0xc9, 0xb8, 0xca, 0xdf, 0xf0, 0xe4, 0xec, 0xe6,
  0xeb, 0xf8, 0xba, 0x8e, 0x87, 0xea, 0xf5, 0xaa, 0xca, 0xde, 0xa2, 0xb5,
  0xd6, 0xea, 0xf0, 0xcd, 0x9f, 0xac, 0xaf, 0xe2, 0xbb, 0xcd, 0xcb, 0xc6,
  0xec, 0x8e, 0xd5, 0xd3, 0x9f, 0xb3, 0xe0, 0xbf, 0xba, 0xf0, 0xce, 0xc4,
  0xcf, 0xd8, 0xbc, 0xea, 0xa8, 0x59, 0xff, 0xff, 0xac, 0x59, 0xff, 0xff,
  0xb0, 0x59, 0xff, 0xff, 0xb4, 0x59, 0xff, 0xff, 0x0a, 0xab, 0xff, 0xff,
  0x04, 0x00, 0x00, 0x00, 0x00, 0x01, 0x00, 0x00, 0x00, 0x00, 0x00, 0x00,
  0x00, 0x00, 0x00, 0x00, 0x00, 0x00, 0x00, 0x00, 0x00, 0x00, 0x00, 0x00,
  0x00, 0x00, 0x00, 0x00, 0x00, 0x00, 0x00, 0x00, 0x00, 0x00, 0x00, 0x00,
  0x00, 0x00, 0x00, 0x00, 0x00, 0x00, 0x00, 0x00, 0x00, 0x00, 0x00, 0x00,
  0x00, 0x00, 0x00, 0x00, 0x00, 0x00, 0x00, 0x00, 0x00, 0x00, 0x00, 0x00,
  0x00, 0x00, 0x00, 0x00, 0x00, 0x00, 0x00, 0x00, 0x00, 0x00, 0x00, 0x00,
  0x00, 0x00, 0x00, 0x00, 0x00, 0x00, 0x00, 0x00, 0x00, 0x00, 0x00, 0x00,
  0x00, 0x00, 0x00, 0x00, 0x00, 0x00, 0x00, 0x00, 0x00, 0x00, 0x00, 0x00,
  0x00, 0x00, 0x00, 0x00, 0x00, 0x00, 0x00, 0x00, 0x00, 0x00, 0x00, 0x00,
  0x00, 0x00, 0x00, 0x00, 0x00, 0x00, 0x00, 0x00, 0x00, 0x00, 0x00, 0x00,
  0x00, 0x00, 0x00, 0x00, 0x00, 0x00, 0x00, 0x00, 0x00, 0x00, 0x00, 0x00,
  0x00, 0x00, 0x00, 0x00, 0x00, 0x00, 0x00, 0x00, 0x00, 0x00, 0x00, 0x00,
  0x00, 0x00, 0x00, 0x00, 0x00, 0x00, 0x00, 0x00, 0x00, 0x00, 0x00, 0x00,
  0x00, 0x00, 0x00, 0x00, 0x00, 0x00, 0x00, 0x00, 0x00, 0x00, 0x00, 0x00,
  0x00, 0x00, 0x00, 0x00, 0x00, 0x00, 0x00, 0x00, 0x00, 0x00, 0x00, 0x00,
  0x00, 0x00, 0x00, 0x00, 0x00, 0x00, 0x00, 0x00, 0x00, 0x00, 0x00, 0x00,
  0x00, 0x00, 0x00, 0x00, 0x00, 0x00, 0x00, 0x00, 0x00, 0x00, 0x00, 0x00,
  0x00, 0x00, 0x00, 0x00, 0x00, 0x00, 0x00, 0x00, 0x00, 0x00, 0x00, 0x00,
  0x00, 0x00, 0x00, 0x00, 0x00, 0x00, 0x00, 0x00, 0x00, 0x00, 0x00, 0x00,
  0x00, 0x00, 0x00, 0x00, 0x00, 0x00, 0x00, 0x00, 0x00, 0x00, 0x00, 0x00,
  0x00, 0x00, 0x00, 0x00, 0x00, 0x00, 0x00, 0x00, 0x00, 0x00, 0x00, 0x00,
  0x00, 0x00, 0x00, 0x00, 0x00, 0x00, 0x00, 0x00, 0x00, 0x00, 0x00, 0x00,
  0x16, 0xac, 0xff, 0xff, 0x04, 0x00, 0x00, 0x00, 0x00, 0x10, 0x00, 0x00,
  0x18, 0x30, 0x0e, 0xcc, 0x51, 0xb1, 0x11, 0x10, 0xde, 0x08, 0xdd, 0xf3,
  0x25, 0x09, 0x05, 0x2a, 0xee, 0x08, 0x25, 0xff, 0x09, 0xf8, 0x09, 0xff,
  0xfd, 0x13, 0xc1, 0xd4, 0xce, 0xf7, 0x1f, 0x7f, 0x3a, 0xdd, 0x3f, 0xff,
  0x36, 0xd9, 0xdc, 0xd7, 0x4a, 0xf9, 0x9b, 0x2c, 0x15, 0x17, 0x8e, 0x1d,
  0x0e, 0x09, 0xd5, 0xb3, 0x00, 0x69, 0x3b, 0xab, 0xf0, 0xf6, 0xe2, 0xe5,
  0x54, 0xf9, 0x36, 0xe8, 0xdd, 0x2c, 0x0f, 0x0f, 0x15, 0xb4, 0x27, 0x44,
  0xc1, 0xf9, 0xf3, 0xee, 0x90, 0xda, 0x1b, 0xb0, 0xee, 0xd5, 0x2a, 0x23,
  0x19, 0x54, 0x23, 0x08, 0xd3, 0x3b, 0xdd, 0xea, 0xaa, 0xd4, 0xa3, 0xf2,
  0xec, 0x3f, 0x09, 0xe6, 0xc9, 0xb6, 0x97, 0xf6, 0x08, 0xbb, 0x99, 0xf2,
  0x12, 0x10, 0xfe, 0x1e, 0x71, 0xfb, 0x31, 0x9b, 0x1a, 0x23, 0x4a, 0xea,
  0xf4, 0xff, 0xc5, 0xd8, 0x04, 0x3f, 0xe4, 0x81, 0xf1, 0xf8, 0x1f, 0xdd,
  0x49, 0xcb, 0x7d, 0xf1, 0x23, 0x85, 0xfe, 0x1c, 0x04, 0xd7, 0xe2, 0x50,
  0x09, 0x4d, 0xcd, 0xd9, 0x23, 0x04, 0xe9, 0x1f, 0x17, 0xf6, 0x1b, 0x0b,
  0x01, 0x38, 0xed, 0x81, 0x02, 0x40, 0xcd, 0xd6, 0x16, 0xe3, 0x61, 0x24,
  0xf1, 0x03, 0x0a, 0x3c, 0x03, 0x11, 0xc4, 0xf5, 0x1a, 0x12, 0x2b, 0xc6,
  0x21, 0xbc, 0xdd, 0xf7, 0xec, 0x66, 0x5a, 0x6c, 0x14, 0x40, 0xe1, 0xd2,
  0x01, 0x0b, 0x0e, 0xdc, 0x50, 0x7f, 0xee, 0xf3, 0xc1, 0xeb, 0x02, 0xf5,
  0x40, 0x18, 0x14, 0x21, 0xc9, 0x02, 0x2d, 0x0e, 0xf5, 0xe8, 0xf9, 0xf3,
  0x00, 0x2e, 0x12, 0x19, 0xfd, 0xf2, 0x5a, 0x36, 0x3c, 0x3f, 0x36, 0x6c,
  0x18, 0x9e, 0xec, 0x24, 0xb4, 0x2d, 0xf4, 0xfb, 0xe7, 0x0b, 0xd7, 0xff,
  0xda, 0x1c, 0x2f, 0x0d, 0xf8, 0xf3, 0xbc, 0xba, 0x08, 0x04, 0xf5, 0xe9,
  0x1e, 0xfb, 0x15, 0xd7, 0xd6, 0x33, 0x33, 0xef, 0xfb, 0xdd, 0x08, 0x14,
  0x2e, 0x08, 0xdf, 0xe6, 0xfc, 0xcc, 0x04, 0x81, 0x0a, 0xe8, 0x07, 0xc9,
  0xf3, 0x3f, 0x33, 0xe2, 0x20, 0xd2, 0xe1, 0xea, 0xdc, 0xf8, 0xf5, 0xe8,
  0x05, 0xe5, 0xdb, 0xfe, 0xce, 0xe2, 0x26, 0xcf, 0xfc, 0xec, 0xc6, 0xf7,
  0xdf, 0xdb, 0xe7, 0x3a, 0x19, 0xc9, 0x10, 0xc1, 0xe1, 0xe5, 0x0c, 0xef,
  0x19, 0xd3, 0xe6, 0x0b, 0x0c, 0xf6, 0x1e, 0xc5, 0x81, 0x0d, 0x34, 0xf2,
  0xe0, 0x26, 0xdf, 0xec, 0x1b, 0xf8, 0xef, 0xe3, 0x06, 0x37, 0x2a, 0x92,
  0xde, 0xd4, 0xfb, 0x1e, 0xd1, 0x16, 0xee, 0xf4, 0x17, 0x3f, 0xb7, 0x18,
  0xe4, 0xf0, 0x07, 0x2d, 0x04, 0x00, 0x2a, 0x09, 0xfd, 0xdc, 0xbe, 0xd9,
  0x17, 0xdc, 0xcb, 0x0c, 0xff, 0xf1, 0x33, 0x3e, 0xfe, 0xd8, 0x41, 0x33,
  0xf5, 0x27, 0xf7, 0x0a, 0x43, 0xe1, 0x9c, 0xe2, 0x03, 0x0d, 0x04, 0x9e,
  0xb0, 0x1e, 0xf2, 0x14, 0xf1, 0xec, 0x0e, 0xdf, 0xb4, 0xe0, 0xe2, 0xeb,
  0x0f, 0x13, 0xfd, 0x6a, 0xbb, 0x04, 0x26, 0x81, 0xbd, 0xdf, 0xe7, 0x08,
  0x31, 0xef, 0xea, 0xb0, 0x1d, 0x15, 0x13, 0xea, 0x27, 0x06, 0xd7, 0x06,
  0x1b, 0xe8, 0x6f, 0x36, 0x45, 0xe1, 0xfa, 0x14, 0x1a, 0xe8, 0x18, 0x2b,
  0x07, 0x1f, 0x48, 0xdc, 0x16, 0xb5, 0x22, 0xfe, 0xc3, 0x05, 0x31, 0xf4,
  0xdc, 0xb6, 0xe2, 0xcc, 0xbc, 0x1e, 0xd8, 0x18, 0x01, 0xd2, 0x7f, 0xf7,
  0x1e, 0xc9, 0x03, 0x14, 0xfe, 0xfb, 0xff, 0xfb, 0xdb, 0xfd, 0xec, 0x49,
  0x35, 0x15, 0x04, 0xe6, 0xbf, 0xfa, 0x02, 0x16, 0xe0, 0xfc, 0xdd, 0x86,
  0xfa, 0x10, 0x91, 0xb4, 0xe5, 0x10, 0x0a, 0xf2, 0xca, 0xdc, 0xf7, 0xea,
  0x04, 0x13, 0x1b, 0xeb, 0x21, 0x23, 0x27, 0xd5, 0x1c, 0x9d, 0x3f, 0x31,
  0xd5, 0x26, 0xee, 0xe7, 0x17, 0x32, 0xc3, 0xd3, 0xbb, 0x61, 0x2d, 0x18,
  0x24, 0x5c, 0x03, 0x2b, 0xdd, 0x53, 0xe5, 0x21, 0xde, 0x1c, 0x07, 0x88,
  0xc2, 0x34, 0x3e, 0x37, 0xdd, 0x05, 0x1a, 0xe7, 0xe6, 0x0c, 0x0b, 0x0f,
  0xce, 0x81, 0xf6, 0x1e, 0xf5, 0x19, 0x23, 0x0d, 0xe1, 0xda, 0x04, 0xe4,
  0xd4, 0xeb, 0xef, 0x03, 0xde, 0xe9, 0x27, 0xfc, 0xed, 0xe8, 0x49, 0x6e,
  0xca, 0xfa, 0xe1, 0x21, 0x0f, 0xd5, 0xca, 0xc6, 0x01, 0xdb, 0xdd, 0xc4,
  0x42, 0xdf, 0x67, 0xd0, 0x48, 0x94, 0x2a, 0xd2, 0x20, 0x05, 0x19, 0xd8,
  0x63, 0xdb, 0x08, 0x26, 0xed, 0xed, 0xee, 0x42, 0x03, 0xf6, 0xf7, 0x33,
  0x10, 0x23, 0x10, 0x01, 0x1d, 0xcf, 0x13, 0x10, 0xdb, 0xb1, 0x13, 0xdb,
  0x42, 0x0b, 0xb3, 0x1d, 0x4f, 0x51, 0x7d, 0x81, 0xf6, 0x48, 0xf8, 0x33,
  0xe4, 0xf8, 0xdc, 0xc2, 0x2d, 0x21, 0x61, 0x22, 0xf7, 0x93, 0xc5, 0xf3,
  0xfd, 0x29, 0x13, 0x3f, 0x00, 0x07, 0xf8, 0xf2, 0x05, 0xe9, 0xf8, 0x1a,
  0xf7, 0x13, 0x21, 0x02, 0xd9, 0x26, 0x08, 0x3b, 0x25, 0xff, 0x0b, 0x02,
  0xea, 0x14, 0xde, 0x14, 0xeb, 0xf2, 0x21, 0x0a, 0xd0, 0xeb, 0x01, 0xa9,
  0x16, 0x39, 0x08, 0xe4, 0x81, 0xef, 0x20, 0x17, 0xcc, 0x0e, 0x08, 0x06,
  0xb4, 0xff, 0xeb, 0xb7, 0x2a, 0x3f, 0x05, 0xff, 0x0b, 0xc8, 0x24, 0xfa,
  0xec, 0x40, 0xe9, 0xf8, 0x30, 0xeb, 0x19, 0xf1, 0xe6, 0x19, 0x4b, 0x07,
  0x13, 0xf0, 0x21, 0xdb, 0x05, 0x81, 0xcb, 0x5a, 0xdb, 0xdc, 0xfe, 0x19,
  0xbb, 0x3c, 0xf3, 0x52, 0xdb, 0xfb, 0x1c, 0xfa, 0x0d, 0x21, 0xe2, 0x10,
  0xe5, 0xef, 0x3a, 0xd7, 0xfd, 0x01, 0xda, 0xda, 0x1c, 0xdf, 0x08, 0xfa,
  0x17, 0x1c, 0xe3, 0x63, 0x0b, 0xfc, 0xb9, 0x14, 0xe6, 0x0d, 0x12, 0xc1,
  0xf9, 0xde, 0xf3, 0xbc, 0xc9, 0xee, 0xf4, 0x58, 0x20, 0x29, 0xba, 0xba,
  0xfb, 0xda, 0xb0, 0x81, 0x64, 0xdd, 0x07, 0x14, 0xea, 0xf8, 0xfc, 0xf6,
  0xdc, 0x07, 0x06, 0x1e, 0x48, 0xeb, 0x0e, 0xc9, 0xea, 0x33, 0x08, 0xf3,
  0x16, 0xfa, 0xe8, 0xd5, 0xf3, 0xfa, 0x06, 0x01, 0x28, 0xfd, 0xe8, 0xed,
  0xaf, 0xb4, 0xfb, 0x5d, 0x07, 0x0e, 0xdc, 0xd0, 0x05, 0x0d, 0x9d, 0xf2,
  0x2d, 0x09, 0xdc, 0xeb, 0x09, 0xe0, 0x29, 0xd9, 0xa9, 0x42, 0xee, 0xf7,
  0xf2, 0xd7, 0x0e, 0xe6, 0xd6, 0x24, 0x08, 0xf3, 0x32, 0xd8, 0xf6, 0x4a,
  0xe8, 0xf6, 0xea, 0xe1, 0x10, 0x55, 0xe7, 0xe4, 0xf2, 0xf6, 0x0a, 0x4c,
  0x23, 0x0f, 0xd9, 0xec, 0xce, 0x42, 0xd1, 0x28, 0xc4, 0x00, 0x39, 0x3e,
  0x14, 0xfe, 0x4b, 0x47, 0x8e, 0xde, 0x0e, 0x11, 0x19, 0xc3, 0x81, 0xce,
  0xd2, 0xcb, 0xf7, 0xfc, 0xfa, 0x52, 0x08, 0xcb, 0x01, 0x42, 0x47, 0x21,
  0x47, 0x4a, 0xeb, 0xd6, 0x47, 0xe8, 0x1a, 0xda, 0x09, 0xc7, 0x0a, 0xc9,
  0x33, 0xde, 0xe5, 0x1b, 0xfb, 0x55, 0x06, 0xe7, 0xc5, 0x2f, 0x0a, 0x27,
  0x12, 0xc1, 0xcb, 0xbe, 0xe5, 0x3c, 0x04, 0xe9, 0x07, 0xf0, 0x00, 0x3e,
  0x01, 0x08, 0x4e, 0x30, 0x08, 0xd4, 0x22, 0x31, 0x81, 0xee, 0x1d, 0xea,
  0x54, 0x21, 0x33, 0xb0, 0xdb, 0xfb, 0xc8, 0xe1, 0x49, 0xfe, 0xd7, 0xd8,
  0x12, 0x2d, 0x01, 0xf7, 0x43, 0x6c, 0xf2, 0xe4, 0x73, 0xe3, 0x47, 0xfa,
  0xc5, 0xf1, 0xf6, 0x29, 0x81, 0x3c, 0x44, 0xf0, 0x34, 0x98, 0x64, 0x0f,
  0x04, 0xfd, 0x8d, 0xda, 0xbf, 0x08, 0xf3, 0x1d, 0x21, 0xed, 0xb0, 0xea,
  0xd4, 0x3b, 0xe8, 0x23, 0x06, 0x3e, 0x07, 0x8c, 0xc1, 0xb9, 0xcc, 0xad,
  0x2d, 0x39, 0x61, 0x3c, 0x01, 0x1b, 0x00, 0xf5, 0xfb, 0x27, 0x50, 0x1e,
  0xf0, 0x35, 0x2f, 0x0e, 0x17, 0xcb, 0x1c, 0x5d, 0xba, 0xe4, 0x0b, 0x06,
  0xd8, 0x5b, 0xa4, 0xe3, 0x36, 0x09, 0x6e, 0xdd, 0x3b, 0xd8, 0xf4, 0xf1,
  0x29, 0x82, 0xed, 0xf2, 0x03, 0xfa, 0xfd, 0xc0, 0x1f, 0x6c, 0xe3, 0x7f,
  0x20, 0x2b, 0x00, 0x1d, 0xe1, 0x16, 0x23, 0x18, 0xe5, 0xf3, 0x10, 0xe8,
  0x0c, 0x09, 0xdb, 0xe8, 0xfe, 0x2e, 0xf9, 0xd7, 0x22, 0xf7, 0xcf, 0x39,
  0xfa, 0x06, 0x96, 0x00, 0x23, 0xf0, 0xe2, 0xc0, 0x21, 0x07, 0x0a, 0xd2,
  0x1e, 0x17, 0x0d, 0xeb, 0x4a, 0x2f, 0xe9, 0xeb, 0xf4, 0xbc, 0x36, 0xe3,
  0x33, 0x1b, 0xa1, 0x21, 0x09, 0x7f, 0xe7, 0xca, 0xff, 0x53, 0x12, 0x86,
  0x0c, 0xa6, 0x14, 0xf2, 0xc8, 0x2e, 0x02, 0xee, 0x31, 0xf5, 0xe9, 0x38,
  0xeb, 0xc0, 0x13, 0xe9, 0x1e, 0x28, 0x4f, 0x1f, 0xdc, 0xe0, 0x34, 0x18,
  0xd7, 0xd5, 0xa2, 0xb1, 0xd4, 0xb4, 0xef, 0xe5, 0x11, 0xf8, 0xe8, 0x24,
  0xd0, 0x4f, 0x11, 0x2d, 0x63, 0xf3, 0xd8, 0xac, 0x4c, 0xfb, 0x2d, 0xde,
  0x4a, 0x0a, 0x01, 0x16, 0xcc, 0xf7, 0xff, 0x2c, 0x17, 0xe8, 0x3c, 0xfd,
  0xfc, 0xf7, 0xd7, 0xd4, 0xf2, 0x1a, 0x23, 0xfc, 0xe2, 0x39, 0xcc, 0xe7,
  0xf2, 0x36, 0xcc, 0x15, 0xa6, 0x39, 0xc8, 0xb7, 0xec, 0x25, 0xc0, 0xe9,
  0xdf, 0x19, 0xcf, 0xd6, 0xbd, 0xc1, 0x81, 0x15, 0xc0, 0x0f, 0x32, 0xba,
  0x2d, 0x43, 0xf4, 0xe9, 0x2c, 0xc0, 0x01, 0x0a, 0x37, 0x4b, 0xff, 0xd9,
  0x06, 0x0f, 0x0d, 0xe8, 0xd2, 0xfb, 0x0c, 0x22, 0xe2, 0xa1, 0x5e, 0xdf,
  0x1a, 0xf3, 0x18, 0xd4, 0x1a, 0xf0, 0xe2, 0xf1, 0x01, 0xe2, 0x17, 0x1f,
  0x1e, 0x16, 0xff, 0xb8, 0xf5, 0x14, 0xfc, 0x1b, 0x13, 0x2c, 0xcd, 0x18,
  0xf5, 0x0b, 0xc5, 0xc8, 0xf7, 0xfb, 0x31, 0xef, 0x42, 0x03, 0xf9, 0xca,
  0xd5, 0x52, 0x40, 0xe4, 0xf4, 0xed, 0x2d, 0x81, 0x3f, 0x0e, 0x39, 0x1d,
  0xf6, 0xf2, 0xf8, 0x23, 0x1b, 0x06, 0x0d, 0xfd, 0xf1, 0x61, 0xe3, 0x9f,
  0x3e, 0xcc, 0x2a, 0xf0, 0xcc, 0xea, 0x08, 0x49, 0xec, 0xe9, 0xe9, 0x09,
  0xdd, 0xec, 0x1e, 0x81, 0xc6, 0x02, 0x1f, 0x05, 0x36, 0xdb, 0x08, 0xc7,
  0x0b, 0xec, 0xe4, 0x15, 0x2f, 0x9c, 0x34, 0x43, 0xd0, 0xa2, 0xf3, 0x08,
  0x2e, 0x18, 0xfb, 0x5d, 0x11, 0x99, 0x07, 0x1a, 0x41, 0xe1, 0x22, 0x01,
  0x09, 0xe3, 0xc9, 0xeb, 0xe7, 0xd8, 0xfa, 0xf1, 0xcb, 0xa5, 0xe4, 0xe2,
  0x1e, 0x1e, 0xdb, 0xf8, 0x39, 0x06, 0x0d, 0x20, 0x17, 0x1b, 0xeb, 0xe3,
  0xdf, 0xfa, 0x0e, 0x2b, 0x27, 0xb5, 0xe6, 0xa3, 0xcd, 0x27, 0x17, 0x01,
  0x11, 0xe4, 0xed, 0x2a, 0xe3, 0xfe, 0xee, 0x6a, 0x10, 0xc9, 0x3d, 0x5f,
  0xcd, 0xe7, 0x22, 0xee, 0xe8, 0x12, 0x21, 0xe0, 0x0b, 0x9f, 0xeb, 0xea,
  0xf3, 0xe2, 0xeb, 0xf4, 0xf7, 0x7f, 0xed, 0xfd, 0x16, 0xec, 0xc4, 0xf9,
  0xf6, 0xed, 0x2d, 0xef, 0x51, 0x00, 0x0b, 0xd2, 0x40, 0xfc, 0xe3, 0xce,
  0x11, 0xad, 0xfd, 0xec, 0x29, 0xfa, 0x2e, 0xfb, 0x2b, 0x10, 0xf3, 0x10,
  0x1b, 0x05, 0xe5, 0x12, 0x20, 0xc9, 0x01, 0xd3, 0xfb, 0xf8, 0x30, 0xe4,
  0x05, 0xfd, 0xfc, 0x7f, 0x18, 0xff, 0xfc, 0x04, 0x5b, 0x19, 0xe5, 0x4c,
  0xfe, 0xc6, 0xee, 0x12, 0x19, 0x03, 0xdd, 0xf1, 0xf5, 0xe5, 0xeb, 0x06,
  0xda, 0xec, 0x17, 0x06, 0x3c, 0x1d, 0xfc, 0x0d, 0x0d, 0xe5, 0x37, 0xce,
  0x3e, 0x1d, 0xe5, 0xe2, 0x0f, 0xd5, 0xeb, 0xf3, 0x1c, 0xda, 0xff, 0xb9,
  0x0e, 0x16, 0x10, 0x1d, 0x15, 0x12, 0xe8, 0x03, 0x13, 0xee, 0x0b, 0xf8,
  0xeb, 0xe9, 0x16, 0x35, 0x23, 0x1f, 0x13, 0x7f, 0xfc, 0xd7, 0xec, 0xe0,
  0x47, 0x04, 0xd0, 0x22, 0xe7, 0xc2, 0xc2, 0xf8, 0xee, 0xf2, 0xf5, 0x2e,
  0xf9, 0x0d, 0xdd, 0xe9, 0x1d, 0xfc, 0x16, 0x0b, 0x30, 0x22, 0xf3, 0xeb,
  0xef, 0x0e, 0x29, 0xcd, 0x7f, 0x5a, 0xfb, 0xe6, 0xfb, 0xec, 0x0d, 0xef,
  0x30, 0xfa, 0x0d, 0xaa, 0xd7, 0xf0, 0x0b, 0xdc, 0x04, 0xed, 0xec, 0xfc,
  0xf9, 0x10, 0xf1, 0x44, 0xe6, 0xdf, 0x3f, 0x28, 0x34, 0x17, 0x34, 0x63,
  0x09, 0xc6, 0x1b, 0xe5, 0x2b, 0x0e, 0xb8, 0x18, 0xd3, 0xe7, 0xae, 0xff,
  0xdd, 0x0f, 0x0f, 0xf2, 0xe8, 0xd4, 0xcc, 0xd4, 0x36, 0x1b, 0xe9, 0xf9,
  0x44, 0x18, 0xfb, 0xc4, 0xa9, 0xd5, 0xd2, 0x0e, 0xff, 0x46, 0xb9, 0xe9,
  0x05, 0xbb, 0xd1, 0xd7, 0x2e, 0xba, 0x16, 0xc6, 0xc7, 0xf8, 0xa2, 0x87,
  0xeb, 0x01, 0xa3, 0xb3, 0xde, 0xbb, 0x0b, 0x7f, 0x31, 0xe1, 0x2d, 0x57,
  0x0b, 0x0a, 0x5f, 0x14, 0xd4, 0xd8, 0xd8, 0x36, 0xab, 0xf8, 0xed, 0x23,
  0xd7, 0x05, 0x1b, 0xfb, 0xdc, 0xe6, 0x5a, 0x0f, 0x24, 0xbb, 0xb9, 0x31,
  0xa3, 0xd6, 0x3b, 0x70, 0x20, 0xb6, 0xe4, 0xb0, 0xe7, 0xfa, 0x56, 0x52,
  0xcd, 0x0e, 0xd5, 0xda, 0x3c, 0xc9, 0xf3, 0xf1, 0xe9, 0xfe, 0x02, 0x03,
  0x12, 0x2b, 0xaf, 0xe2, 0x01, 0x31, 0xe0, 0xd8, 0x17, 0x1b, 0x14, 0x7f,
  0xdc, 0x11, 0x03, 0xdb, 0x87, 0x2e, 0xdd, 0xf6, 0x2c, 0x3d, 0xd8, 0xce,
  0xfc, 0x07, 0xd5, 0x32, 0x17, 0x18, 0x76, 0xe2, 0xfe, 0x19, 0x02, 0x30,
  0xe2, 0xdc, 0xf8, 0x6a, 0x08, 0x0c, 0x42, 0xd8, 0xc1, 0xf3, 0x00, 0xb0,
  0x4b, 0xea, 0x48, 0xf1, 0xf5, 0x02, 0xbf, 0xf4, 0x1c, 0xbf, 0xd6, 0x00,
  0x28, 0xcd, 0x1d, 0xdb, 0xf5, 0x2c, 0xe0, 0x25, 0xbd, 0xe2, 0x22, 0x1d,
  0x16, 0xbc, 0xea, 0x25, 0xee, 0x81, 0x0a, 0x94, 0x0f, 0xfe, 0xad, 0xe9,
  0x31, 0x14, 0xa6, 0xdf, 0x0d, 0x17, 0x0b, 0xff, 0x3f, 0xe3, 0x12, 0x1c,
  0xdc, 0xe5, 0xde, 0x17, 0xd5, 0xc8, 0xf2, 0x3d, 0x35, 0xc1, 0x02, 0xf9,
  0x16, 0x14, 0x08, 0x5d, 0xc0, 0x21, 0x0d, 0xfe, 0x12, 0x8f, 0xfa, 0xd0,
  0x49, 0xd5, 0xe6, 0xce, 0x1d, 0x10, 0x2b, 0xca, 0xd5, 0x48, 0xbb, 0x4a,
  0x08, 0xee, 0xde, 0xe4, 0xd3, 0x0b, 0xf3, 0x2d, 0xe8, 0xb7, 0xf1, 0xcc,
  0xf2, 0x2f, 0x20, 0xe0, 0x41, 0xfd, 0xa0, 0x24, 0xc4, 0xf3, 0xed, 0x3e,
  0xf5, 0x69, 0x09, 0x28, 0x23, 0xe2, 0x4b, 0x81, 0x20, 0x55, 0x71, 0x1f,
  0xbf, 0xc0, 0xba, 0x1a, 0x16, 0x0d, 0xfe, 0xf0, 0x67, 0x0c, 0xc4, 0x85,
  0x7e, 0xa6, 0x19, 0xfc, 0x01, 0x46, 0x04, 0xcd, 0x1a, 0xc5, 0xfd, 0x21,
  0x40, 0xd6, 0xc3, 0xf5, 0x13, 0x39, 0xeb, 0x0f, 0xed, 0xe9, 0xf0, 0x9e,
  0x03, 0x44, 0x11, 0x5f, 0x17, 0xfb, 0x5b, 0x10, 0xe3, 0x9a, 0x31, 0x34,
  0xde, 0xff, 0x0e, 0xe6, 0x01, 0x29, 0x8a, 0xe5, 0xdd, 0x15, 0xca, 0x81,
  0x07, 0x5e, 0x74, 0xba, 0x9e, 0xf4, 0x07, 0xcf, 0x24, 0xf6, 0xfe, 0xf2,
  0xd1, 0xe7, 0xac, 0xd2, 0x3c, 0x6a, 0xd7, 0xf8, 0xcd, 0x0f, 0x16, 0xe5,
  0xec, 0xe7, 0x1b, 0x3c, 0x0f, 0x9c, 0x2d, 0x9d, 0xe4, 0x0e, 0x15, 0x16,
  0x13, 0x14, 0x02, 0xcb, 0x28, 0x00, 0x0c, 0x2d, 0x16, 0x01, 0x7f, 0x38,
  0xe9, 0x93, 0xda, 0x61, 0xf0, 0x1c, 0xf8, 0xd1, 0xfe, 0xb3, 0xd3, 0xe3,
  0xca, 0xf5, 0x12, 0x44, 0xe4, 0x0b, 0xa7, 0x17, 0xaf, 0xf0, 0xe0, 0x09,
  0xc7, 0xdd, 0x0c, 0xf6, 0xe7, 0x37, 0xd2, 0xf8, 0x2c, 0xed, 0xf2, 0x36,
  0xd3, 0x03, 0xdb, 0x1d, 0xb8, 0x20, 0x2d, 0x31, 0xe9, 0xc5, 0x1d, 0xa8,
  0xc3, 0xf5, 0x11, 0x0f, 0x10, 0x08, 0xf5, 0xd2, 0xf1, 0xec, 0xfb, 0x7f,
  0x3e, 0xd6, 0x2d, 0x1f, 0xdf, 0xdb, 0x9f, 0x12, 0x04, 0xed, 0xf5, 0xeb,
  0x0c, 0xe8, 0xfa, 0x10, 0xd8, 0xff, 0x24, 0x07, 0xe7, 0x56, 0x15, 0xc5,
  0xc9, 0xd6, 0xbd, 0x11, 0xe7, 0x11, 0xe6, 0xd1, 0x0e, 0xd6, 0xdc, 0xe7,
  0x21, 0xfa, 0x0a, 0xf9, 0x06, 0xc5, 0xf2, 0x00, 0x11, 0x08, 0xf8, 0x4a,
  0x25, 0x18, 0xd7, 0x81, 0xea, 0x1b, 0x24, 0x1d, 0x10, 0xe0, 0x31, 0x13,
  0x2e, 0x18, 0xfb, 0xa7, 0x03, 0x04, 0xb2, 0xca, 0xeb, 0xf6, 0xfa, 0x53,
  0xd8, 0x13, 0x2f, 0x0c, 0x17, 0x24, 0x07, 0x02, 0x18, 0xf6, 0xfa, 0xcf,
  0x12, 0xb6, 0x17, 0x06, 0xc5, 0x0e, 0x12, 0x0a, 0xd4, 0xf0, 0x11, 0x17,
  0x3f, 0xe1, 0xe6, 0xe8, 0x30, 0x1d, 0xea, 0xf4, 0xec, 0xea, 0x0f, 0xf5,
  0xfe, 0x19, 0x11, 0x10, 0x2c, 0xff, 0xbc, 0x81, 0x23, 0x54, 0x24, 0x13,
  0x0d, 0xef, 0x23, 0x42, 0x13, 0x56, 0xd2, 0x29, 0x13, 0x0f, 0x27, 0x5b,
  0xeb, 0xe9, 0x0d, 0x1a, 0xcf, 0x32, 0x39, 0xf2, 0xfb, 0xdf, 0xe6, 0xe6,
  0x4c, 0x1b, 0xe3, 0xe5, 0xfb, 0x25, 0xdd, 0x0b, 0xf7, 0x1b, 0x28, 0xc0,
  0xf1, 0xed, 0x19, 0xf8, 0x93, 0x1a, 0x54, 0xdf, 0x53, 0x2f, 0x1d, 0xbd,
  0x43, 0xe0, 0xca, 0xe7, 0x32, 0xf3, 0x12, 0xd3, 0x02, 0x52, 0xa3, 0xd7,
  0xd3, 0xed, 0x07, 0xdd, 0xe8, 0x1b, 0xe7, 0x7f, 0x0b, 0xc0, 0x18, 0x9c,
  0xd4, 0x59, 0xe9, 0xcd, 0x02, 0xd9, 0x22, 0x0f, 0x22, 0x11, 0xbe, 0x24,
  0xe4, 0x3e, 0x09, 0xe5, 0xdc, 0x10, 0x24, 0xcb, 0xd7, 0x8d, 0x3f, 0x42,
  0x03, 0x33, 0xe8, 0x14, 0x0e, 0x36, 0x01, 0xb3, 0xe9, 0x2e, 0x7f, 0xc8,
  0x13, 0xa1, 0x0b, 0x2d, 0x1d, 0x1e, 0xf6, 0x0b, 0x08, 0xaf, 0x04, 0xfe,
  0x23, 0xbc, 0xd0, 0x17, 0x03, 0x28, 0xee, 0xf3, 0xe4, 0xee, 0x05, 0x22,
  0xeb, 0xd5, 0xd8, 0x40, 0xf2, 0x0f, 0x1c, 0xd6, 0x12, 0xe5, 0xf3, 0xa7,
  0x66, 0x04, 0x1f, 0xe0, 0xf8, 0x18, 0x00, 0x2c, 0x0f, 0x9f, 0xe0, 0xd9,
  0x0f, 0x26, 0x56, 0x16, 0x21, 0xc9, 0xe4, 0x09, 0x36, 0x26, 0xfc, 0x14,
  0xef, 0xfd, 0x03, 0x1a, 0xe7, 0x33, 0x1b, 0xf0, 0x20, 0xb2, 0xfd, 0x1e,
  0xdf, 0xde, 0xf5, 0x1d, 0xc8, 0x26, 0xf8, 0x7d, 0xd9, 0xf2, 0xe6, 0x01,
  0xdf, 0x21, 0x16, 0xff, 0x13, 0xeb, 0x0a, 0xd7, 0xde, 0xc9, 0xed, 0xe1,
  0x08, 0x1d, 0xec, 0x1e, 0xe5, 0x2f, 0x1f, 0xff, 0xf1, 0x21, 0x22, 0xf5,
  0xd1, 0x0d, 0x1c, 0x46, 0xf2, 0xff, 0xd2, 0x1b, 0xd5, 0xe3, 0x26, 0x44,
  0xe4, 0xe8, 0x81, 0x12, 0x2a, 0x09, 0x25, 0xd7, 0x3f, 0xf8, 0x1a, 0xd7,
  0x01, 0xf4, 0x16, 0xe1, 0x12, 0xe7, 0xf5, 0xe5, 0x20, 0xf9, 0x1b, 0xe7,
  0xea, 0x04, 0xf1, 0x0d, 0xf6, 0xd5, 0xf2, 0xe7, 0x13, 0x2f, 0x11, 0xd6,
  0x06, 0xce, 0x0a, 0x7f, 0x01, 0xe4, 0x18, 0xec, 0x7f, 0x19, 0xf7, 0xf7,
  0xf8, 0xb7, 0xec, 0x17, 0x19, 0xf5, 0xe2, 0xf7, 0x14, 0xe8, 0xdf, 0xf1,
  0xf2, 0xf4, 0x08, 0xde, 0x20, 0x18, 0x0c, 0xf6, 0x33, 0x28, 0xfc, 0x8f,
  0x3e, 0x1c, 0xf2, 0x03, 0xab, 0x39, 0x2a, 0xeb, 0x34, 0x0d, 0x1a, 0xea,
  0x20, 0xc3, 0x31, 0xb7, 0x11, 0x02, 0x01, 0xde, 0x28, 0xf8, 0x36, 0x09,
  0xf6, 0x1a, 0x2e, 0x17, 0x44, 0x09, 0x2c, 0x51, 0x16, 0x81, 0x2a, 0x37,
  0x8f, 0x14, 0x05, 0xdd, 0xd6, 0x13, 0xd7, 0xf0, 0xec, 0x38, 0xe8, 0x3d,
  0xe0, 0xd5, 0xc5, 0xc4, 0xe4, 0x15, 0x28, 0xd3, 0xe2, 0xda, 0x14, 0x0a,
  0xfc, 0x0e, 0xd1, 0x40, 0x8d, 0x32, 0x23, 0xf9, 0xfb, 0xf8, 0x7f, 0xd9,
  0x22, 0x2b, 0xec, 0xb6, 0x23, 0xe0, 0x5c, 0x36, 0x0f, 0x43, 0xdd, 0xf4,
  0xf0, 0x1a, 0x83, 0xea, 0xd2, 0x7f, 0xf9, 0xd7, 0xd0, 0x0c, 0x1b, 0x35,
  0x26, 0x07, 0x3d, 0x0e, 0xc2, 0xcb, 0x91, 0xb8, 0xa0, 0x15, 0x41, 0xfe,
  0x35, 0x5c, 0xed, 0x22, 0xfb, 0xf6, 0xb5, 0x2b, 0xf0, 0x5f, 0x10, 0xb2,
  0xb2, 0x20, 0x1d, 0xe6, 0x37, 0xea, 0x0c, 0x9b, 0x35, 0xa8, 0xfb, 0x13,
  0xbe, 0x0a, 0xc9, 0xdf, 0xdf, 0x00, 0x23, 0x1f, 0x33, 0xda, 0x11, 0xac,
  0x81, 0x4e, 0x02, 0xe3, 0x09, 0x0e, 0x30, 0xdc, 0xbb, 0xc7, 0x99, 0x40,
  0x40, 0xf1, 0x3a, 0x23, 0xf9, 0x9c, 0xab, 0xcc, 0x4f, 0x08, 0xfd, 0xa9,
  0x0f, 0x12, 0xe4, 0x38, 0x04, 0xc7, 0xeb, 0xce, 0x08, 0x2b, 0x5d, 0xdd,
  0xe9, 0xd2, 0x94, 0x1d, 0xe1, 0xb7, 0x20, 0x1c, 0x34, 0xea, 0xac, 0xc2,
  0x65, 0x36, 0xa3, 0xc9, 0x12, 0x5f, 0xe5, 0xb3, 0x67, 0x28, 0x4c, 0xd2,
  0xd6, 0x8a, 0x20, 0x4b, 0xda, 0xec, 0xec, 0x4e, 0xed, 0x36, 0xc0, 0x32,
  0x1f, 0x8c, 0x3c, 0x7f, 0x2f, 0x10, 0x36, 0x07, 0x32, 0xfd, 0xf6, 0xfb,
  0x76, 0x07, 0x06, 0x9e, 0xd8, 0xbb, 0xcc, 0x0e, 0xe2, 0x20, 0x08, 0xd3,
  0xe7, 0x33, 0x27, 0x23, 0x3c, 0x16, 0xda, 0xde, 0x0c, 0xf4, 0x22, 0x3d,
  0xe5, 0x0f, 0xf6, 0xef, 0xf7, 0x2a, 0xfe, 0xc9, 0x13, 0xe5, 0x09, 0x2f,
  0x12, 0x03, 0x1c, 0x0d, 0xd9, 0x21, 0xf5, 0x6f, 0xdc, 0x13, 0xf3, 0x17,
  0x20, 0xe4, 0x20, 0x0b, 0x19, 0xea, 0x07, 0x81, 0xd5, 0x07, 0x83, 0xa1,
  0x35, 0xeb, 0x0a, 0x3d, 0xf4, 0x2e, 0x21, 0x18, 0x09, 0x08, 0xe5, 0x25,
  0xe4, 0x12, 0x43, 0x37, 0xff, 0x9b, 0xde, 0xf3, 0xd1, 0x1e, 0xdc, 0x26,
  0xb8, 0x23, 0xae, 0x1e, 0xe8, 0x26, 0xd0, 0x9d, 0x3e, 0x02, 0x2e, 0x17,
  0xbf, 0x0e, 0xfc, 0x11, 0xdc, 0x18, 0x19, 0x7a, 0x00, 0xe1, 0x0d, 0xc9,
  0xee, 0x18, 0x01, 0x28, 0x0f, 0xfc, 0x03, 0xa7, 0x0e, 0x07, 0x3d, 0x22,
  0x19, 0x10, 0x46, 0x6c, 0xb5, 0x9a, 0x25, 0x7f, 0xf8, 0xfe, 0xfd, 0xf7,
  0x0b, 0xde, 0xe8, 0xf2, 0xff, 0x19, 0x26, 0xfd, 0xe3, 0xd5, 0x07, 0xd8,
  0x9c, 0x4e, 0xd6, 0xf4, 0xe3, 0xbd, 0x22, 0xe3, 0x02, 0x1a, 0x3d, 0x04,
  0x2b, 0xc1, 0x21, 0x45, 0x2f, 0x14, 0xdc, 0xf0, 0xce, 0x47, 0x2f, 0xdb,
  0xfc, 0x55, 0xbc, 0xe8, 0xd8, 0x24, 0xc4, 0xcc, 0xef, 0xcc, 0x08, 0x53,
  0xd7, 0x09, 0xd2, 0xb1, 0x21, 0x56, 0xb9, 0xd3, 0xbd, 0x34, 0x5c, 0xb9,
  0x11, 0xd2, 0xe5, 0x07, 0xba, 0x09, 0xd2, 0xdf, 0xf8, 0x32, 0x0d, 0xb2,
  0x0e, 0xb0, 0x3d, 0xe7, 0x73, 0x7f, 0xfb, 0x20, 0x78, 0xe4, 0x17, 0xd1,
  0x32, 0x23, 0x34, 0x0c, 0xcf, 0xc6, 0x28, 0x3d, 0xe8, 0xbf, 0xf5, 0x22,
  0xad, 0x22, 0x19, 0xa8, 0xee, 0x44, 0xdd, 0xcc, 0xbd, 0x4c, 0xf0, 0xcf,
  0xa8, 0x3e, 0xc5, 0x0e, 0x9f, 0x36, 0xff, 0xc3, 0xc2, 0x47, 0xd3, 0xc5,
  0xa9, 0xf9, 0x1e, 0xa5, 0xfe, 0xcc, 0xbc, 0x20, 0x06, 0x34, 0x3b, 0x13,
  0x34, 0x1e, 0x11, 0x81, 0x57, 0xb1, 0x29, 0x3a, 0x3b, 0x31, 0xd5, 0xd1,
  0x56, 0x58, 0xf8, 0xd2, 0x47, 0x06, 0x2d, 0xaa, 0x79, 0x2f, 0xca, 0x04,
  0x0d, 0x38, 0xfb, 0xc0, 0x0d, 0x0d, 0x0b, 0xfc, 0x0d, 0xeb, 0xe5, 0xbd,
  0xef, 0x02, 0xdb, 0x1e, 0x06, 0xae, 0x7f, 0x58, 0xe2, 0xe1, 0x0e, 0xa1,
  0x12, 0xec, 0x2e, 0xfc, 0xc3, 0xfa, 0x0b, 0xee, 0xe1, 0x39, 0x41, 0xe1,
  0xe2, 0x0a, 0x8e, 0xdd, 0xd3, 0xe0, 0xf5, 0x57, 0xe4, 0xac, 0x09, 0xd6,
  0xee, 0x2b, 0xe5, 0x17, 0x3e, 0xe7, 0x07, 0x0f, 0x1b, 0xf6, 0xe8, 0xc0,
  0x3b, 0xf0, 0xfc, 0x1b, 0x1a, 0x18, 0xf2, 0xdc, 0xf0, 0x32, 0x13, 0x01,
  0x1f, 0xa1, 0xf5, 0xf7, 0xf1, 0x2e, 0x1d, 0xf6, 0xf2, 0x1b, 0x13, 0xfd,
  0xdb, 0xfe, 0xd1, 0xf5, 0x11, 0x1c, 0x09, 0xef, 0x81, 0xc7, 0x0e, 0xf7,
  0xe3, 0x04, 0x1c, 0xcc, 0xde, 0xee, 0xe4, 0xdc, 0x42, 0x14, 0xed, 0xc5,
  0xff, 0xfe, 0x21, 0xeb, 0x01, 0x2b, 0xd2, 0xf9, 0x1c, 0x10, 0x2c, 0xd5,
  0x2b, 0xfa, 0xbe, 0x04, 0x0b, 0x1b, 0xfd, 0x06, 0xfa, 0xee, 0x11, 0xdf,
  0xfd, 0xf8, 0xea, 0x13, 0x30, 0xc4, 0xf2, 0xa7, 0xf1, 0x69, 0xef, 0xfd,
  0x0b, 0xe9, 0xfa, 0x05, 0xfd, 0x36, 0xd2, 0x1e, 0xe8, 0xc3, 0x7d, 0x51,
  0xe6, 0xf0, 0x61, 0x1c, 0x00, 0x1a, 0x19, 0xb8, 0x06, 0x81, 0xfe, 0x0a,
  0x3b, 0xef, 0xcd, 0x13, 0xfd, 0x67, 0xf2, 0x29, 0xed, 0x22, 0xe2, 0xac,
  0xe2, 0xed, 0x29, 0x06, 0x59, 0xf2, 0x34, 0xbe, 0x38, 0x79, 0xe5, 0xc2,
  0x0a, 0xcc, 0xf1, 0xc1, 0x32, 0xbe, 0x2a, 0xe6, 0x0a, 0xc3, 0xc7, 0x59,
  0xb1, 0xc6, 0xfc, 0xf9, 0xd2, 0xb9, 0x64, 0xf5, 0x21, 0x89, 0x1f, 0x82,
  0x09, 0xaf, 0xf6, 0xda, 0x52, 0x05, 0xd1, 0x68, 0x21, 0x6b, 0x6b, 0xcc,
  0x0f, 0xea, 0x1e, 0x1a, 0xac, 0xd8, 0x1a, 0x62, 0xda, 0x81, 0xeb, 0xea,
  0xe7, 0xb9, 0x9a, 0xf9, 0x6b, 0x1b, 0xe2, 0x7b, 0xfe, 0xf0, 0x39, 0xe9,
  0x17, 0x4c, 0xf6, 0xe9, 0x0d, 0xea, 0xf1, 0xff, 0x31, 0xc0, 0xdf, 0xc5,
  0xe8, 0x3f, 0xe7, 0xf1, 0x4d, 0x00, 0xe0, 0xef, 0xdc, 0xe9, 0x62, 0x34,
  0x0f, 0xe5, 0x05, 0x81, 0x1b, 0xfe, 0xe4, 0x3e, 0x26, 0xea, 0x27, 0xf6,
  0x5d, 0x24, 0x4e, 0x20, 0xfc, 0xcb, 0x04, 0x09, 0x10, 0xf4, 0x1e, 0x3f,
  0x13, 0xbd, 0x8f, 0x13, 0xef, 0xfb, 0x2e, 0x3d, 0x19, 0x22, 0xcc, 0x05,
  0xf5, 0x2c, 0xc4, 0xfb, 0xca, 0xdc, 0xe6, 0xe3, 0xee, 0x0b, 0xea, 0xf3,
  0x1d, 0x1d, 0x34, 0xb1, 0xd4, 0xa8, 0x53, 0x20, 0xf3, 0x05, 0xe1, 0xee,
  0x16, 0x14, 0xcb, 0xf0, 0xd7, 0xe6, 0x12, 0x4f, 0xd0, 0x31, 0xd0, 0x24,
  0xe8, 0xc3, 0x4e, 0xf7, 0xcc, 0xe1, 0xc6, 0xa0, 0xe9, 0xda, 0x37, 0x26,
  0xe0, 0xf7, 0xf8, 0xf6, 0xe9, 0xd6, 0x20, 0x1f, 0x22, 0x18, 0xa8, 0x81,
  0x23, 0xfd, 0x2a, 0xd4, 0x2d, 0xca, 0xea, 0xbe, 0x0a, 0xa9, 0xe8, 0x05,
  0x15, 0xf8, 0xe7, 0xf1, 0xfc, 0x1a, 0x02, 0xf3, 0xfc, 0xf4, 0x00, 0x1e,
  0x1f, 0x20, 0x25, 0x01, 0x09, 0x05, 0x07, 0xd0, 0x20, 0xea, 0xe4, 0xcd,
  0xfc, 0x2f, 0xed, 0xef, 0xce, 0xd8, 0xe1, 0x18, 0xc6, 0xf7, 0xd4, 0xfd,
  0x04, 0x30, 0xed, 0xf9, 0x2f, 0x11, 0x0a, 0xa6, 0x17, 0xfc, 0x7f, 0xe9,
  0xec, 0x12, 0xf2, 0xfe, 0xf5, 0x0c, 0x1e, 0xfd, 0xa2, 0x6f, 0x08, 0xef,
  0x0f, 0xf1, 0x04, 0x33, 0xc3, 0x10, 0xda, 0x24, 0x81, 0xc7, 0xfc, 0x4a,
  0xe3, 0xb3, 0x3c, 0x97, 0xd5, 0xf0, 0x27, 0xe0, 0x19, 0x08, 0xeb, 0xeb,
  0xdc, 0xd6, 0xad, 0x48, 0x1d, 0xc0, 0x1a, 0x42, 0xbb, 0xad, 0xa1, 0xf0,
  0x7f, 0xe0, 0xef, 0xfd, 0xf9, 0xb6, 0x0d, 0x0c, 0xdc, 0xd9, 0x02, 0x13,
  0x09, 0x5a, 0x13, 0xff, 0xec, 0x97, 0xbe, 0x0d, 0x08, 0xf7, 0x13, 0xbe,
  0xec, 0x44, 0x57, 0xfa, 0xea, 0x12, 0x1a, 0xeb, 0x9d, 0xbf, 0xe8, 0x73,
  0xed, 0x81, 0xeb, 0x37, 0xa6, 0x6f, 0x06, 0xd9, 0xca, 0xf5, 0xca, 0xf8,
  0xf8, 0x0a, 0x4c, 0xd8, 0xf9, 0x06, 0x1d, 0xb4, 0x0c, 0x06, 0xe4, 0x54,
  0x4e, 0x0b, 0x34, 0xef, 0x5c, 0x0d, 0x1c, 0x73, 0xf2, 0xdd, 0x44, 0xe2,
  0x18, 0xec, 0x44, 0x54, 0x2d, 0x10, 0x98, 0xdb, 0xe7, 0xb7, 0xb1, 0x40,
  0xec, 0x29, 0xac, 0x16, 0x47, 0xb4, 0x06, 0xf2, 0x0e, 0x9d, 0x3b, 0xd4,
  0x13, 0xba, 0x08, 0xe2, 0x39, 0x00, 0xda, 0x4e, 0x11, 0x3c, 0xe0, 0x39,
  0xfc, 0x08, 0xc8, 0x30, 0x14, 0xe2, 0x33, 0xd0, 0x1f, 0x15, 0xf2, 0x97,
  0x22, 0x7f, 0xbc, 0xc1, 0x15, 0x2b, 0x48, 0x11, 0xd1, 0xf8, 0x1b, 0x20,
  0xfb, 0x20, 0xca, 0x15, 0x29, 0xf6, 0xd3, 0x84, 0x19, 0xa2, 0x25, 0x0c,
  0xcc, 0x6c, 0x6f, 0x22, 0xeb, 0xfa, 0x11, 0x32, 0xfc, 0x42, 0x0a, 0x27,
  0xec, 0x73, 0x33, 0x27, 0xdc, 0x40, 0x10, 0x16, 0x81, 0x11, 0xfe, 0x37,
  0x1b, 0xc4, 0x37, 0x88, 0xb5, 0x06, 0xf2, 0xef, 0x1f, 0xde, 0x05, 0x1e,
  0xbe, 0xe0, 0xda, 0xd6, 0x1c, 0xd4, 0xef, 0x22, 0xbe, 0xfd, 0x2f, 0xcf,
  0x27, 0xef, 0x03, 0xbb, 0xdc, 0xc4, 0x3a, 0xe5, 0xed, 0xf3, 0x01, 0x5a,
  0xe1, 0xe1, 0xbb, 0x27, 0x38, 0xf8, 0xbb, 0xd2, 0xf4, 0xde, 0x12, 0xe6,
  0xb0, 0xed, 0xb1, 0xe8, 0x31, 0xe6, 0x5d, 0xdd, 0xee, 0x04, 0xfb, 0xe0,
  0x26, 0x11, 0x20, 0x49, 0xfc, 0xa9, 0x4f, 0x98, 0x11, 0x0f, 0xdc, 0x02,
  0x17, 0xfe, 0xe9, 0xd3, 0x29, 0x52, 0x3a, 0xdf, 0x25, 0x42, 0x23, 0x61,
  0x29, 0x96, 0x59, 0x5d, 0xaa, 0x07, 0xb6, 0xa4, 0x01, 0x26, 0xdf, 0x1e,
  0xc5, 0x07, 0x33, 0xe0, 0xf5, 0xfc, 0x07, 0xe9, 0x81, 0x5d, 0x3e, 0xeb,
  0xd1, 0xd8, 0x01, 0xbb, 0xfd, 0xc1, 0xbf, 0xe1, 0xf3, 0x6e, 0xa3, 0xdc,
  0xcb, 0x41, 0x0e, 0xe1, 0x13, 0xfa, 0x37, 0xa9, 0xf3, 0xbd, 0x1a, 0x3a,
  0xda, 0xb5, 0xfd, 0x37, 0x22, 0x08, 0xb9, 0xd5, 0xd6, 0x2a, 0x19, 0x11,
  0x1a, 0xdf, 0x46, 0x23, 0x3b, 0x03, 0x7f, 0xec, 0x27, 0xff, 0xc1, 0xef,
  0xd7, 0xb4, 0xfc, 0xfc, 0xea, 0xf9, 0xf2, 0x1e, 0xbc, 0x13, 0xd0, 0x0b,
  0x2a, 0x1d, 0xd6, 0xd5, 0xb4, 0x41, 0x1d, 0xef, 0x0a, 0x31, 0x1c, 0xf0,
  0xed, 0x20, 0xeb, 0x29, 0xea, 0x05, 0x19, 0xdf, 0xf8, 0x21, 0xe4, 0xdf,
  0x1a, 0xf5, 0x2d, 0x34, 0x4d, 0x6c, 0xe8, 0xd1, 0x08, 0x28, 0xcf, 0x10,
  0x8c, 0x1e, 0xc5, 0xb6, 0x05, 0x55, 0xf6, 0xf7, 0xdb, 0x06, 0x81, 0xfa,
  0x92, 0xe0, 0xb0, 0x49, 0xe0, 0x03, 0x0e, 0xb9, 0x1e, 0x36, 0xe8, 0x0c,
  0x1d, 0xc4, 0xbc, 0x06, 0x36, 0xd8, 0x34, 0xcd, 0xf2, 0x19, 0xf8, 0xe0,
  0xde, 0x2b, 0xe8, 0x07, 0xe7, 0x40, 0xc8, 0x55, 0xd6, 0x66, 0xfb, 0x02,
  0xbb, 0x04, 0x01, 0xcf, 0x11, 0x9e, 0x3d, 0x06, 0xdd, 0x09, 0x01, 0xf5,
  0xfd, 0x28, 0xdb, 0xe9, 0xd6, 0xf5, 0xd8, 0x34, 0xf5, 0xdf, 0x43, 0x33,
  0x87, 0xfd, 0xf7, 0xd6, 0x0c, 0xe1, 0xf0, 0xa3, 0xe8, 0x81, 0x1c, 0xe7,
  0x2b, 0x05, 0xd1, 0x29, 0x06, 0x3d, 0xf7, 0x17, 0x09, 0xfa, 0xc7, 0xb7,
  0xda, 0xe4, 0x06, 0xcf, 0x04, 0xf4, 0xf5, 0xfb, 0xe1, 0x54, 0xde, 0xed,
  0xee, 0xdc, 0x1c, 0xf8, 0x0c, 0x15, 0x00, 0xf9, 0x12, 0xc9, 0x13, 0xf6,
  0x0a, 0x07, 0x01, 0xfd, 0x05, 0xfe, 0x01, 0x0e, 0xfd, 0x17, 0xfd, 0x23,
  0xee, 0xef, 0x4b, 0x77, 0xfd, 0x1c, 0x65, 0xe8, 0xe6, 0xfe, 0x0a, 0xd4,
  0xe5, 0x81, 0x20, 0xfd, 0xf4, 0x17, 0xe4, 0x24, 0xe8, 0x4a, 0xc7, 0x11,
  0x15, 0x28, 0xf7, 0xd5, 0xff, 0x11, 0x28, 0x09, 0x3d, 0xe0, 0x06, 0xda,
  0x08, 0x48, 0xd5, 0xf2, 0x13, 0xf4, 0xcf, 0xec, 0x23, 0xfa, 0x24, 0x1e,
  0x13, 0x07, 0x16, 0xac, 0xf8, 0x24, 0x12, 0x48, 0xf6, 0x17, 0xdb, 0xdd,
  0x34, 0xaa, 0xde, 0xbc, 0xc1, 0xd9, 0xdb, 0x72, 0x37, 0x1b, 0xe4, 0x27,
  0x11, 0x50, 0xde, 0x0c, 0x15, 0x8e, 0x0e, 0x23, 0x12, 0xfa, 0xcb, 0x7f,
  0xe5, 0xc3, 0x93, 0x18, 0x15, 0xa6, 0xf8, 0xe6, 0x9d, 0x2d, 0xd9, 0x16,
  0x11, 0x0e, 0x0c, 0xfa, 0x04, 0x0b, 0x1e, 0xe9, 0xdd, 0xeb, 0xed, 0x11,
  0xf3, 0xdd, 0x1b, 0x33, 0x30, 0xea, 0x03, 0x81, 0xd0, 0x16, 0x25, 0x17,
  0x1c, 0xee, 0xf6, 0xdb, 0x09, 0x06, 0xf1, 0x08, 0xfe, 0xc5, 0xe5, 0x49,
  0xde, 0xe4, 0x2e, 0x02, 0x43, 0xec, 0x01, 0x2a, 0xf8, 0xcf, 0xfe, 0x0c,
  0x38, 0xf4, 0xf1, 0xc0, 0xfe, 0xe5, 0xf0, 0xe5, 0xf4, 0x09, 0xf3, 0xf2,
  0x15, 0xf6, 0x13, 0xf7, 0xd0, 0x6a, 0xff, 0xff, 0x26, 0xbc, 0xff, 0xff,
  0x04, 0x00, 0x00, 0x00, 0x00, 0x01, 0x00, 0x00, 0x00, 0x00, 0x00, 0x00,
  0x00, 0x00, 0x00, 0x00, 0x00, 0x00, 0x00, 0x00, 0x00, 0x00, 0x00, 0x00,
  0x00, 0x00, 0x00, 0x00, 0x00, 0x00, 0x00, 0x00, 0x00, 0x00, 0x00, 0x00,
  0x00, 0x00, 0x00, 0x00, 0x00, 0x00, 0x00, 0x00, 0x00, 0x00, 0x00, 0x00,
  0x00, 0x00, 0x00, 0x00, 0x00, 0x00, 0x00, 0x00, 0x00, 0x00, 0x00, 0x00,
  0x00, 0x00, 0x00, 0x00, 0x00, 0x00, 0x00, 0x00, 0x00, 0x00, 0x00, 0x00,
  0x00, 0x00, 0x00, 0x00, 0x00, 0x00, 0x00, 0x00, 0x00, 0x00, 0x00, 0x00,
  0x00, 0x00, 0x00, 0x00, 0x00, 0x00, 0x00, 0x00, 0x00, 0x00, 0x00, 0x00,
  0x00, 0x00, 0x00, 0x00, 0x00, 0x00, 0x00, 0x00, 0x00, 0x00, 0x00, 0x00,
  0x00, 0x00, 0x00, 0x00, 0x00, 0x00, 0x00, 0x00, 0x00, 0x00, 0x00, 0x00,
  0x00, 0x00, 0x00, 0x00, 0x00, 0x00, 0x00, 0x00, 0x00, 0x00, 0x00, 0x00,
  0x00, 0x00, 0x00, 0x00, 0x00, 0x00, 0x00, 0x00, 0x00, 0x00, 0x00, 0x00,
  0x00, 0x00, 0x00, 0x00, 0x00, 0x00, 0x00, 0x00, 0x00, 0x00, 0x00, 0x00,
  0x00, 0x00, 0x00, 0x00, 0x00, 0x00, 0x00, 0x00, 0x00, 0x00, 0x00, 0x00,
  0x00, 0x00, 0x00, 0x00, 0x00, 0x00, 0x00, 0x00, 0x00, 0x00, 0x00, 0x00,
  0x00, 0x00, 0x00, 0x00, 0x00, 0x00, 0x00, 0x00, 0x00, 0x00, 0x00, 0x00,
  0x00, 0x00, 0x00, 0x00, 0x00, 0x00, 0x00, 0x00, 0x00, 0x00, 0x00, 0x00,
  0x00, 0x00, 0x00, 0x00, 0x00, 0x00, 0x00, 0x00, 0x00, 0x00, 0x00, 0x00,
  0x00, 0x00, 0x00, 0x00, 0x00, 0x00, 0x00, 0x00, 0x00, 0x00, 0x00, 0x00,
  0x00, 0x00, 0x00, 0x00, 0x00, 0x00, 0x00, 0x00, 0x00, 0x00, 0x00, 0x00,
  0x00, 0x00, 0x00, 0x00, 0x00, 0x00, 0x00, 0x00, 0x00, 0x00, 0x00, 0x00,
  0x00, 0x00, 0x00, 0x00, 0x00, 0x00, 0x00, 0x00, 0x00, 0x00, 0x00, 0x00,
  0x32, 0xbd, 0xff, 0xff, 0x04, 0x00, 0x00, 0x00, 0x40, 0x01, 0x00, 0x00,
  0x2a, 0xcf, 0x56, 0x49, 0x9b, 0x8d, 0xcd, 0xc1, 0x43, 0x39, 0xe1, 0xd4,
  0x2d, 0x20, 0x1b, 0x95, 0x02, 0x43, 0xd2, 0x42, 0x97, 0xc9, 0x18, 0x20,
  0x14, 0x0d, 0x27, 0x3f, 0x24, 0xbf, 0x42, 0x87, 0xad, 0x64, 0xb7, 0xf5,
  0x57, 0x63, 0x09, 0xd9, 0xa7, 0x2b, 0x4c, 0x27, 0x15, 0x1b, 0x56, 0x2b,
  0xc0, 0xdb, 0xe8, 0x9e, 0xdf, 0x99, 0x33, 0x58, 0x4b, 0xe7, 0xbe, 0xb5,
  0x58, 0xc8, 0x18, 0x3b, 0x21, 0xe4, 0x38, 0x23, 0xc6, 0xc9, 0xc0, 0xd2,
  0x37, 0x25, 0xe8, 0xcd, 0x2c, 0x00, 0x13, 0xd2, 0x0b, 0x2b, 0xef, 0x1a,
  0xc7, 0xd6, 0x25, 0x09, 0x1d, 0xe8, 0x1f, 0x3a, 0x1c, 0xd1, 0x23, 0xb0,
  0xd1, 0x33, 0xc9, 0xee, 0x3e, 0x32, 0x0f, 0xd8, 0xc0, 0x21, 0x31, 0x18,
  0x1a, 0x0a, 0x3b, 0x0e, 0xd9, 0xe7, 0xd4, 0xea, 0xf1, 0xd6, 0x0e, 0x36,
  0x2f, 0xe9, 0xc8, 0xe0, 0x30, 0xce, 0x04, 0x12, 0x30, 0xd4, 0x1c, 0x21,
  0xd3, 0xf3, 0xd3, 0xf4, 0x09, 0x18, 0xd6, 0xdb, 0x1c, 0xf7, 0x11, 0xe3,
  0x24, 0x2f, 0xd4, 0xfd, 0xdd, 0xe3, 0x11, 0x10, 0x17, 0xe3, 0x24, 0x2b,
  0x10, 0xef, 0x2c, 0xc8, 0xe9, 0xff, 0xe1, 0xfa, 0x27, 0x3e, 0xf3, 0xd2,
  0xd2, 0x0c, 0x28, 0x12, 0x02, 0x08, 0x34, 0xf5, 0xf1, 0x05, 0xd4, 0xfe,
  0x06, 0xfd, 0x08, 0x29, 0x2c, 0xe7, 0xd3, 0xfa, 0x1f, 0xdd, 0x19, 0x1f,
  0x49, 0xe7, 0x1e, 0x40, 0xd2, 0xeb, 0xd7, 0xf7, 0x13, 0x23, 0xd6, 0xda,
  0x03, 0x13, 0x0b, 0xf8, 0x35, 0x38, 0xdb, 0xe0, 0xfe, 0xf5, 0x22, 0x06,
  0x19, 0xe4, 0x38, 0x49, 0x15, 0xdc, 0x31, 0xb9, 0x02, 0xf3, 0xd6, 0xde,
  0x11, 0x38, 0xd3, 0xd6, 0xda, 0x0f, 0x26, 0x23, 0x02, 0x1f, 0x47, 0xf7,
  0x0a, 0x07, 0xd6, 0xfd, 0xf5, 0xea, 0x1f, 0x2e, 0x1e, 0xd3, 0xc4, 0xf8,
  0x17, 0xdc, 0x19, 0x18, 0x5a, 0xe6, 0x44, 0x41, 0xce, 0xc4, 0xf7, 0xe7,
  0x27, 0x58, 0xd4, 0xe0, 0xe8, 0x3d, 0x17, 0xed, 0x38, 0x5a, 0xcd, 0xc0,
  0xf9, 0x0f, 0x2d, 0x1f, 0x15, 0xce, 0x55, 0x63, 0x30, 0xb8, 0x1f, 0x81,
  0xd5, 0x22, 0x9d, 0x97, 0x13, 0x32, 0xa0, 0xbd, 0xb9, 0x29, 0x3e, 0x5a,
  0x15, 0x50, 0x58, 0x0b, 0x23, 0xf4, 0xde, 0xc5, 0xfb, 0xa4, 0x5e, 0x46,
  0x3d, 0xba, 0xac, 0xa1, 0x2b, 0xe3, 0x2b, 0x05, 0x2c, 0x6d, 0xff, 0xff,
  0x82, 0xbe, 0xff, 0xff, 0x04, 0x00, 0x00, 0x00, 0x00, 0x01, 0x00, 0x00,
  0x00, 0x00, 0x00, 0x00, 0x00, 0x00, 0x00, 0x00, 0x00, 0x00, 0x00, 0x00,
  0x00, 0x00, 0x00, 0x00, 0x00, 0x00, 0x00, 0x00, 0x00, 0x00, 0x00, 0x00,
  0x00, 0x00, 0x00, 0x00, 0x00, 0x00, 0x00, 0x00, 0x00, 0x00, 0x00, 0x00,
  0x00, 0x00, 0x00, 0x00, 0x00, 0x00, 0x00, 0x00, 0x00, 0x00, 0x00, 0x00,
  0x00, 0x00, 0x00, 0x00, 0x00, 0x00, 0x00, 0x00, 0x00, 0x00, 0x00, 0x00,
  0x00, 0x00, 0x00, 0x00, 0x00, 0x00, 0x00, 0x00, 0x00, 0x00, 0x00, 0x00,
  0x00, 0x00, 0x00, 0x00, 0x00, 0x00, 0x00, 0x00, 0x00, 0x00, 0x00, 0x00,
  0x00, 0x00, 0x00, 0x00, 0x00, 0x00, 0x00, 0x00, 0x00, 0x00, 0x00, 0x00,
  0x00, 0x00, 0x00, 0x00, 0x00, 0x00, 0x00, 0x00, 0x00, 0x00, 0x00, 0x00,
  0x00, 0x00, 0x00, 0x00, 0x00, 0x00, 0x00, 0x00, 0x00, 0x00, 0x00, 0x00,
  0x00, 0x00, 0x00, 0x00, 0x00, 0x00, 0x00, 0x00, 0x00, 0x00, 0x00, 0x00,
  0x00, 0x00, 0x00, 0x00, 0x00, 0x00, 0x00, 0x00, 0x00, 0x00, 0x00, 0x00,
  0x00, 0x00, 0x00, 0x00, 0x00, 0x00, 0x00, 0x00, 0x00, 0x00, 0x00, 0x00,
  0x00, 0x00, 0x00, 0x00, 0x00, 0x00, 0x00, 0x00, 0x00, 0x00, 0x00, 0x00,
  0x00, 0x00, 0x00, 0x00, 0x00, 0x00, 0x00, 0x00, 0x00, 0x00, 0x00, 0x00,
  0x00, 0x00, 0x00, 0x00, 0x00, 0x00, 0x00, 0x00, 0x00, 0x00, 0x00, 0x00,
  0x00, 0x00, 0x00, 0x00, 0x00, 0x00, 0x00, 0x00, 0x00, 0x00, 0x00, 0x00,
  0x00, 0x00, 0x00, 0x00, 0x00, 0x00, 0x00, 0x00, 0x00, 0x00, 0x00, 0x00,
  0x00, 0x00, 0x00, 0x00, 0x00, 0x00, 0x00, 0x00, 0x00, 0x00, 0x00, 0x00,
  0x00, 0x00, 0x00, 0x00, 0x00, 0x00, 0x00, 0x00, 0x00, 0x00, 0x00, 0x00,
  0x00, 0x00, 0x00, 0x00, 0x00, 0x00, 0x00, 0x00, 0x00, 0x00, 0x00, 0x00,
  0x00, 0x00, 0x00, 0x00, 0x8e, 0xbf, 0xff, 0xff, 0x04, 0x00, 0x00, 0x00,
  0x00, 0x10, 0x00, 0x00, 0xd3, 0xf9, 0x1f, 0x2c, 0xcb, 0x01, 0x13, 0xd2,
  0x44, 0xe7, 0xa4, 0x0d, 0x2f, 0x05, 0xc5, 0x16, 0xfa, 0xc5, 0x01, 0x27,
  0xfb, 0xe5, 0x13, 0x48, 0x17, 0x55, 0x0d, 0x17, 0xf9, 0xec, 0xd3, 0x17,
  0x23, 0x4c, 0xf8, 0x81, 0xc6, 0x1b, 0xbb, 0x0e, 0x01, 0x06, 0x16, 0xf4,
  0x4a, 0xeb, 0xc4, 0x0c, 0x1c, 0xbb, 0x34, 0xec, 0x08, 0x0a, 0xe8, 0x15,
  0x0f, 0x18, 0xc9, 0x19, 0x11, 0x25, 0x4f, 0xee, 0xeb, 0xf1, 0x2f, 0xf1,
  0xfe, 0x07, 0x1e, 0xea, 0x13, 0xca, 0x1f, 0x0a, 0x52, 0xec, 0xdb, 0x22,
  0x00, 0xce, 0xf2, 0x4e, 0x14, 0x3a, 0x47, 0xfd, 0x23, 0x1c, 0xe0, 0xae,
  0x0e, 0xde, 0x18, 0x0b, 0x26, 0x7f, 0xf6, 0xb3, 0xe7, 0x1f, 0xa1, 0x3c,
  0x01, 0xeb, 0x0e, 0xf1, 0x07, 0xe7, 0xed, 0xf9, 0xfd, 0x9d, 0xf7, 0xc4,
  0xf7, 0xc6, 0x13, 0xfe, 0x38, 0x1b, 0xf3, 0xbe, 0x0e, 0x75, 0x2a, 0xcf,
  0x8f, 0x13, 0xea, 0x40, 0xf4, 0x18, 0xd7, 0xf4, 0xcf, 0xce, 0x27, 0x08,
  0x2c, 0x42, 0x46, 0xe2, 0xf6, 0xea, 0xff, 0x4f, 0xe8, 0x1e, 0xe3, 0x03,
  0x11, 0x7f, 0x28, 0x48, 0x3b, 0xe8, 0x07, 0xe6, 0x36, 0x78, 0xf6, 0xaf,
  0x17, 0xcc, 0x09, 0xce, 0x20, 0xda, 0xe1, 0x19, 0xd8, 0x2f, 0xb4, 0x07,
  0x7b, 0x0a, 0xf3, 0xf6, 0x25, 0xf9, 0xe9, 0xf3, 0xc4, 0xb5, 0x18, 0x27,
  0xf3, 0xef, 0x1a, 0xd3, 0xb8, 0x0b, 0xd8, 0xf6, 0x20, 0x3d, 0x06, 0x1e,
  0xfb, 0xfb, 0x04, 0x27, 0x11, 0x1d, 0x1e, 0xf5, 0xe5, 0xe6, 0xf6, 0x0c,
  0x11, 0x29, 0x1d, 0xe6, 0xed, 0x33, 0xd1, 0xe7, 0x2b, 0xd1, 0x2d, 0x06,
  0xc3, 0x14, 0xf7, 0xfd, 0x06, 0x04, 0x18, 0xdd, 0xc3, 0x02, 0xef, 0x04,
  0xed, 0x28, 0xcb, 0x12, 0x03, 0x13, 0x24, 0x22, 0x7f, 0x0a, 0x14, 0x1c,
  0x09, 0xe1, 0x1e, 0xf0, 0xe7, 0xd5, 0x02, 0x06, 0xc1, 0xb7, 0x07, 0xd6,
  0x04, 0x2b, 0x2d, 0x1a, 0xd6, 0xe5, 0x19, 0x02, 0x06, 0xe3, 0xfb, 0x18,
  0xfe, 0xb0, 0x04, 0x2d, 0xff, 0x09, 0x15, 0xdf, 0xd6, 0x11, 0xf0, 0xc3,
  0x30, 0xc6, 0x00, 0x1a, 0x8c, 0x17, 0xfb, 0x03, 0x28, 0x0e, 0x03, 0x03,
  0x81, 0x14, 0xe3, 0x05, 0xda, 0x2c, 0xfd, 0xfc, 0x12, 0xbb, 0x24, 0x1d,
  0x2e, 0x45, 0x1f, 0x28, 0x16, 0xcc, 0xf2, 0x00, 0xd1, 0x13, 0xf2, 0x01,
  0x01, 0xe7, 0xed, 0x32, 0x19, 0xf3, 0x09, 0xce, 0x0b, 0xfb, 0xf1, 0xae,
  0xe5, 0xe1, 0x0f, 0xc4, 0x59, 0x1e, 0x17, 0xf4, 0xc4, 0x02, 0xc1, 0x39,
  0xf5, 0xf9, 0x25, 0xa7, 0x0d, 0x7f, 0xfb, 0xd9, 0xd8, 0xfe, 0x05, 0x25,
  0x1d, 0xc9, 0x60, 0x0d, 0x0c, 0xfb, 0xf0, 0xf4, 0x15, 0xff, 0x05, 0xf3,
  0x2c, 0x2a, 0xa4, 0x0f, 0xdc, 0xec, 0xc4, 0x17, 0xa1, 0x11, 0x1e, 0x5f,
  0xeb, 0x0f, 0xf7, 0xea, 0xf8, 0x17, 0x2c, 0xd3, 0x27, 0xca, 0x32, 0xf0,
  0xb5, 0xe1, 0x3a, 0xd5, 0x02, 0x19, 0x81, 0x56, 0x0f, 0x2f, 0xf3, 0xd3,
  0xf5, 0x10, 0x04, 0x08, 0x0c, 0xec, 0xfc, 0x49, 0x1e, 0xf1, 0x07, 0x1b,
  0x41, 0xfa, 0x0d, 0xf1, 0x2b, 0x22, 0xd9, 0xf5, 0x1c, 0xf2, 0xff, 0x07,
  0xe4, 0x17, 0x1e, 0xe8, 0x0a, 0x03, 0x21, 0x37, 0xfe, 0x07, 0x23, 0x27,
  0xf9, 0x4c, 0x16, 0x25, 0x03, 0xd8, 0x43, 0x0d, 0xf3, 0xd2, 0x2b, 0xd9,
  0xdb, 0xe1, 0x0a, 0x26, 0x0e, 0x05, 0xd0, 0x37, 0xfd, 0xc6, 0xfa, 0xc7,
  0xee, 0x23, 0x09, 0xff, 0xdb, 0xe5, 0x74, 0xec, 0x51, 0x0d, 0xcb, 0xe4,
  0x3f, 0x42, 0xf6, 0x11, 0x03, 0x13, 0x3b, 0xd2, 0xb4, 0x4f, 0x15, 0x1c,
  0xfc, 0xdc, 0x2e, 0xea, 0x0a, 0xf9, 0xe2, 0xea, 0xfc, 0x01, 0x3c, 0xa4,
  0xd5, 0xaa, 0xf3, 0x01, 0x5b, 0xff, 0xfd, 0x81, 0xf3, 0x58, 0x5a, 0xd3,
  0xf0, 0x10, 0x11, 0xb9, 0x1c, 0x2d, 0xf2, 0x4c, 0x0a, 0xc9, 0x35, 0x12,
  0xec, 0xcf, 0x48, 0x05, 0x0a, 0x45, 0xf5, 0x5e, 0xf8, 0x7e, 0x2f, 0x29,
  0x0d, 0x49, 0xcf, 0x31, 0xc5, 0xf7, 0x7f, 0xf6, 0x26, 0x47, 0x02, 0xd1,
  0x2a, 0x44, 0x3e, 0x17, 0x0d, 0xe2, 0xec, 0x19, 0xe7, 0xf7, 0x26, 0xd8,
  0xf6, 0xf2, 0xd1, 0xf5, 0xdb, 0x16, 0x77, 0xee, 0xee, 0xc6, 0x1c, 0xbf,
  0xde, 0x2b, 0x4d, 0xee, 0xfe, 0x00, 0xa1, 0xfe, 0x09, 0x09, 0xeb, 0xae,
  0xe2, 0x71, 0xfa, 0xe7, 0xd1, 0x52, 0x37, 0xe4, 0x06, 0xd2, 0xff, 0xfd,
  0xcf, 0xac, 0x81, 0xa1, 0xa5, 0xf8, 0x57, 0x58, 0x1d, 0xee, 0xea, 0xd0,
  0x4e, 0xd6, 0xf7, 0x2d, 0x12, 0xff, 0xad, 0xe6, 0x0d, 0xca, 0xc8, 0xf2,
  0xde, 0x26, 0xd9, 0x13, 0x17, 0x02, 0xf4, 0x25, 0x3a, 0xf3, 0x00, 0xf4,
  0x9d, 0xd7, 0x3b, 0x5e, 0xcc, 0xe2, 0xba, 0x2b, 0x09, 0x33, 0x10, 0xe2,
  0x04, 0xe3, 0x05, 0x0b, 0x2a, 0xe5, 0x07, 0x25, 0x08, 0x00, 0x04, 0xc7,
  0x0f, 0xfe, 0xf7, 0xf0, 0xe7, 0xed, 0x16, 0x15, 0x3a, 0xf5, 0x24, 0xfc,
  0xfb, 0x1e, 0x09, 0xf2, 0x52, 0xf2, 0xff, 0xe8, 0xdc, 0x0f, 0x0e, 0x31,
  0x5c, 0x81, 0x0f, 0x13, 0x0c, 0x01, 0xf5, 0xf2, 0xd7, 0x32, 0xfb, 0x0e,
  0xe1, 0xaf, 0x0e, 0xf3, 0xf5, 0xea, 0xee, 0xfa, 0x10, 0x4f, 0x16, 0x14,
  0xe9, 0xd9, 0x63, 0xe0, 0x1e, 0x47, 0x03, 0x0f, 0xb1, 0x81, 0x0a, 0xd4,
  0xbe, 0xd6, 0x34, 0xd9, 0xe9, 0x2e, 0x94, 0x6b, 0x34, 0xd2, 0x53, 0xed,
  0x21, 0x2c, 0x08, 0xea, 0xfc, 0x1d, 0xef, 0x19, 0xde, 0x42, 0xf9, 0x1e,
  0x2c, 0x57, 0x15, 0x26, 0x12, 0xec, 0x14, 0xc7, 0x0a, 0xd8, 0x01, 0xf3,
  0x2f, 0xe4, 0x03, 0x00, 0xf3, 0x08, 0x15, 0x01, 0x0c, 0xd8, 0x38, 0xf0,
  0x01, 0x6f, 0x25, 0x68, 0xe0, 0xf3, 0xbe, 0xe6, 0x1d, 0xc8, 0x24, 0x14,
  0xf1, 0x06, 0x04, 0x18, 0x07, 0xe9, 0xb5, 0x2b, 0xf4, 0x45, 0xce, 0xde,
  0x08, 0xfb, 0x58, 0x0d, 0xfd, 0xf3, 0xdd, 0xea, 0x0a, 0xf2, 0x33, 0x2a,
  0xfe, 0x0d, 0xf7, 0x0f, 0x19, 0x19, 0xd6, 0x0a, 0x31, 0xdf, 0x22, 0xed,
  0xcc, 0x06, 0xef, 0xf3, 0x0a, 0x9a, 0x49, 0xfb, 0x17, 0xfa, 0x3d, 0xe6,
  0x53, 0x7f, 0x1b, 0xce, 0x19, 0x5f, 0x3a, 0x1f, 0x08, 0x91, 0x37, 0xc1,
  0x74, 0x63, 0x0b, 0xe4, 0xc0, 0xf8, 0xfa, 0x9f, 0xc2, 0xd5, 0xcc, 0xb7,
  0x02, 0xbe, 0x0f, 0x22, 0x59, 0x53, 0x2a, 0xae, 0x0d, 0xfc, 0xf7, 0x07,
  0x06, 0x28, 0x15, 0x00, 0xe3, 0x1a, 0x3d, 0x24, 0x01, 0xed, 0x0b, 0xb7,
  0x81, 0x47, 0x2a, 0xf6, 0xed, 0xc1, 0xc9, 0x24, 0xf3, 0x1d, 0x05, 0x0d,
  0x28, 0x48, 0x03, 0xd7, 0x1f, 0xf9, 0x26, 0x0a, 0x00, 0xfe, 0xff, 0x0a,
  0x0a, 0xf7, 0x14, 0xe5, 0xf1, 0x34, 0x12, 0xf4, 0x0d, 0xe8, 0x0c, 0x07,
  0xd7, 0x0b, 0x27, 0xee, 0x1e, 0x29, 0xef, 0xf9, 0x0f, 0xf9, 0xfb, 0xfd,
  0xec, 0xe7, 0x1d, 0x7f, 0xf9, 0x0e, 0xe8, 0xb7, 0x6f, 0xf3, 0x0e, 0x2a,
  0xed, 0x17, 0xed, 0x07, 0x39, 0xc7, 0xfb, 0xec, 0x1a, 0xfb, 0xfc, 0x0a,
  0xe4, 0x03, 0xea, 0x1a, 0x29, 0xec, 0x1a, 0x0d, 0xf2, 0xc8, 0xdd, 0xe5,
  0x0a, 0xcd, 0x04, 0x31, 0xf6, 0xe8, 0x21, 0xe5, 0xf2, 0xf3, 0x24, 0x13,
  0xb5, 0x01, 0x5b, 0xdb, 0x03, 0x1f, 0xd1, 0x3c, 0x03, 0x21, 0xf2, 0xf3,
  0xf2, 0xee, 0x2c, 0x81, 0xc3, 0xde, 0xef, 0x1d, 0x15, 0xfe, 0x12, 0x46,
  0x20, 0xea, 0xe9, 0xf3, 0x2b, 0x2d, 0xd9, 0x24, 0x15, 0xd8, 0xdc, 0x2c,
  0xe0, 0x35, 0x06, 0xd7, 0x68, 0x09, 0x12, 0x25, 0xe6, 0x07, 0x1c, 0x02,
  0x49, 0x22, 0x12, 0x05, 0xfb, 0x06, 0x37, 0xf9, 0xea, 0x0b, 0x7f, 0x0f,
  0xdf, 0x15, 0x21, 0xf1, 0x1f, 0xac, 0xb5, 0xf3, 0x1d, 0xdc, 0x11, 0xdc,
  0xf9, 0xa1, 0xd2, 0x4a, 0x00, 0xdc, 0x12, 0x12, 0x3f, 0x1d, 0x19, 0xe0,
  0x00, 0x15, 0xe8, 0x1a, 0x0a, 0x6c, 0xfd, 0xd7, 0xef, 0x38, 0xe8, 0x14,
  0xf7, 0xed, 0x0b, 0xe6, 0x3b, 0xd7, 0x02, 0x08, 0xfe, 0xd8, 0x16, 0xc2,
  0xb8, 0x03, 0xd1, 0xf0, 0x04, 0xb3, 0xc8, 0xfc, 0xf2, 0x4d, 0x37, 0x04,
  0xde, 0x11, 0xcd, 0xed, 0xdd, 0x31, 0x18, 0xe1, 0xef, 0x03, 0x09, 0x04,
  0x30, 0x39, 0x3a, 0xcd, 0x04, 0xff, 0x31, 0x45, 0xda, 0xf9, 0xfb, 0x21,
  0x0a, 0x7c, 0x1d, 0xfc, 0x2b, 0xcd, 0x48, 0xe0, 0x30, 0x45, 0xe7, 0x8d,
  0x36, 0xe9, 0xf9, 0xea, 0xfd, 0xeb, 0x0b, 0x13, 0xb4, 0x0e, 0xd1, 0xf0,
  0x0c, 0xf8, 0xe9, 0xba, 0x27, 0xe2, 0x15, 0x16, 0xf8, 0xca, 0x0d, 0xf7,
  0xef, 0xdf, 0x7f, 0xbd, 0xfb, 0xfc, 0x15, 0xdd, 0x28, 0x12, 0x01, 0x12,
  0x17, 0xac, 0xd7, 0x26, 0x67, 0xe8, 0x36, 0xfc, 0x0f, 0xee, 0xf4, 0x34,
  0xed, 0x03, 0xfd, 0x2b, 0x0a, 0xff, 0x0a, 0xf4, 0x01, 0x38, 0x35, 0x11,
  0xfa, 0x7f, 0x08, 0xba, 0x01, 0xee, 0x56, 0xfa, 0x08, 0xe6, 0x0d, 0xfb,
  0xdc, 0xea, 0xf3, 0xd1, 0xe7, 0xe4, 0xde, 0xcc, 0xee, 0xea, 0x1e, 0xe1,
  0xd9, 0xc0, 0xfb, 0xd3, 0xe7, 0x42, 0x23, 0xc7, 0xd1, 0xa8, 0x2c, 0xd7,
  0x33, 0x27, 0x0d, 0x2d, 0xf5, 0x1c, 0xd3, 0x2e, 0x6c, 0xbc, 0xf5, 0xd6,
  0xf5, 0x81, 0x0a, 0x24, 0xd0, 0x2c, 0x3e, 0x32, 0x2f, 0x62, 0xca, 0x85,
  0x6e, 0xbf, 0x19, 0x35, 0xad, 0x1c, 0xf0, 0xb2, 0x07, 0xf5, 0xe3, 0xe2,
  0x83, 0x27, 0x27, 0xd9, 0x16, 0xf7, 0xb6, 0xe7, 0x08, 0xa2, 0x36, 0xf4,
  0x5c, 0xfb, 0xf3, 0x05, 0x21, 0xe4, 0x14, 0xc6, 0xf0, 0xff, 0x24, 0xd8,
  0xfc, 0x13, 0xdb, 0x36, 0xed, 0x21, 0x0c, 0xe3, 0xdb, 0x30, 0x16, 0x1b,
  0x15, 0x2e, 0x03, 0x22, 0xcc, 0x0e, 0x39, 0xea, 0x27, 0xfd, 0xad, 0xd5,
  0xe4, 0x11, 0x3f, 0x7f, 0xff, 0xca, 0xe9, 0xd9, 0x5e, 0xe8, 0x00, 0x0e,
  0xf8, 0xd8, 0xb3, 0xeb, 0x07, 0xfc, 0x0b, 0x00, 0xca, 0xf5, 0x06, 0xf9,
  0xda, 0xe6, 0x2d, 0x25, 0x1e, 0xec, 0xed, 0x0c, 0xf3, 0xfc, 0xdf, 0x00,
  0xf4, 0xb9, 0xef, 0xc6, 0xf3, 0x3a, 0xc3, 0xec, 0x31, 0xb4, 0xe5, 0x01,
  0xe0, 0x05, 0x16, 0x40, 0x31, 0x33, 0xbb, 0xee, 0x0c, 0x06, 0x28, 0xf5,
  0xe6, 0x11, 0x08, 0x0c, 0x1c, 0xe0, 0x03, 0xde, 0xf9, 0xd6, 0x0d, 0xed,
  0x07, 0xde, 0x28, 0x18, 0x0e, 0xf9, 0x81, 0x1f, 0x00, 0x0f, 0x15, 0xf8,
  0xf8, 0xf5, 0xdc, 0x28, 0xcc, 0x24, 0x3d, 0x0d, 0x02, 0xe2, 0xfc, 0x04,
  0x26, 0x50, 0x03, 0xdb, 0x09, 0xfb, 0x35, 0xe1, 0xf0, 0x1c, 0x68, 0x33,
  0xb3, 0x0c, 0x3b, 0xe0, 0x32, 0xf9, 0x00, 0x23, 0xf0, 0x02, 0x13, 0xfb,
  0xf2, 0x08, 0xe6, 0xd5, 0x05, 0xcf, 0xff, 0xb0, 0xfb, 0xf8, 0x3f, 0x21,
  0xd9, 0x0f, 0xce, 0xe7, 0x29, 0xfd, 0x04, 0x13, 0xbe, 0xf5, 0xd1, 0x3b,
  0x3f, 0xa5, 0xe1, 0x01, 0x26, 0xfd, 0x32, 0x18, 0x1c, 0xdb, 0x23, 0x2b,
  0xdf, 0xea, 0xcb, 0xe8, 0x81, 0x1b, 0xc1, 0x32, 0x14, 0x37, 0xfa, 0x07,
  0xb9, 0x09, 0x34, 0x5a, 0x97, 0x5a, 0x37, 0xc6, 0x59, 0x19, 0xc1, 0x1f,
  0x2f, 0x23, 0xf3, 0xee, 0x02, 0xee, 0x17, 0x08, 0xf9, 0xb5, 0x1e, 0x3e,
  0x13, 0xef, 0x1b, 0x04, 0xea, 0x9f, 0xd0, 0x2d, 0x55, 0x3f, 0x06, 0xce,
  0xbd, 0x42, 0xad, 0xde, 0x1a, 0x04, 0xe2, 0xee, 0x51, 0x30, 0xe6, 0x12,
  0x05, 0xad, 0x7f, 0x0e, 0x0d, 0x01, 0xd6, 0x02, 0x0f, 0xb8, 0x9c, 0xcd,
  0x1d, 0xcb, 0x4b, 0xf4, 0xf8, 0x00, 0xf6, 0x15, 0xcc, 0x7f, 0xef, 0xe8,
  0xf7, 0x0e, 0xe3, 0x23, 0xf2, 0x15, 0x3b, 0x12, 0xed, 0xec, 0xea, 0x24,
  0x19, 0xbf, 0x0e, 0xf6, 0xf2, 0x05, 0x33, 0x4c, 0xf2, 0xb6, 0xc9, 0xe6,
  0x16, 0x39, 0x13, 0x1a, 0xdb, 0x02, 0xb2, 0x20, 0x0a, 0xfb, 0x26, 0xfd,
  0x08, 0x16, 0x04, 0x21, 0xfa, 0xcb, 0x38, 0x2e, 0x0c, 0xdc, 0x01, 0xe7,
  0xe3, 0xa0, 0xc0, 0x0b, 0x06, 0x01, 0xef, 0x02, 0xf5, 0xd4, 0x7f, 0x07,
  0xcd, 0xf1, 0xda, 0xdf, 0x56, 0x05, 0xa0, 0xf0, 0x08, 0xe3, 0xf5, 0x21,
  0xd9, 0xef, 0xeb, 0x50, 0x0b, 0xad, 0xf4, 0xc5, 0x15, 0xf1, 0x06, 0x3e,
  0x12, 0xf1, 0xba, 0xe5, 0x09, 0x4d, 0x23, 0xd2, 0xaf, 0x0b, 0x1a, 0xfe,
  0xe8, 0x0b, 0x30, 0xd5, 0x43, 0xce, 0x03, 0x1d, 0xf9, 0xdc, 0x22, 0x9d,
  0xbd, 0xfd, 0xcf, 0xd4, 0xec, 0x08, 0xe2, 0xe8, 0x0d, 0x36, 0x22, 0x0e,
  0xc0, 0x22, 0xf7, 0x1a, 0xf4, 0x33, 0x3b, 0xe7, 0x24, 0x43, 0xcd, 0x25,
  0x4b, 0x23, 0x0a, 0xe7, 0xbb, 0xe7, 0x47, 0x1b, 0xe6, 0xdb, 0x15, 0x23,
  0x03, 0x47, 0x11, 0x31, 0x1a, 0xf4, 0xf9, 0xfc, 0x33, 0x13, 0xee, 0x84,
  0x01, 0xf4, 0xdf, 0xf6, 0xe8, 0xf4, 0x17, 0xde, 0x21, 0xf4, 0xdf, 0xf8,
  0x02, 0xce, 0x35, 0x37, 0x2e, 0xfa, 0xe9, 0x09, 0x0e, 0xeb, 0xeb, 0xca,
  0xf5, 0x0c, 0x7f, 0xa1, 0xb4, 0xde, 0x40, 0xed, 0x45, 0x2d, 0x08, 0xe1,
  0xd6, 0xf3, 0xf2, 0x14, 0x57, 0xfb, 0x3a, 0xe9, 0xf6, 0x0b, 0xff, 0x14,
  0x04, 0x30, 0x12, 0x4a, 0x22, 0x4b, 0x12, 0x03, 0x42, 0x13, 0x49, 0x0a,
  0x0f, 0x6e, 0xe6, 0xa8, 0x2d, 0xd6, 0x30, 0xec, 0xca, 0x11, 0x21, 0xfa,
  0xc8, 0xcd, 0x81, 0xea, 0x04, 0xe1, 0xe7, 0xc9, 0x41, 0xf6, 0xf8, 0x20,
  0xbd, 0xe5, 0x2f, 0xf9, 0xe9, 0x04, 0x13, 0xde, 0xde, 0x0e, 0xf1, 0x0a,
  0x07, 0xc6, 0x2c, 0x0c, 0x00, 0x31, 0xea, 0x3b, 0x51, 0xe4, 0x83, 0x2e,
  0xb8, 0x9d, 0x1e, 0x1e, 0xd5, 0x0c, 0x30, 0x25, 0x3c, 0x08, 0xc2, 0x9f,
  0x38, 0xc0, 0xf1, 0x31, 0x05, 0x32, 0x1a, 0xc1, 0xe1, 0xed, 0xe6, 0x5e,
  0xf3, 0xf2, 0xf9, 0x09, 0x1a, 0xde, 0x81, 0x2a, 0x95, 0x84, 0x3f, 0x04,
  0x3d, 0xff, 0xdf, 0xeb, 0x28, 0x60, 0xfd, 0xa8, 0xd8, 0x71, 0x15, 0x05,
  0x1a, 0xef, 0xee, 0xbc, 0xfb, 0xcc, 0x6e, 0x15, 0xd2, 0x36, 0x4e, 0x07,
  0x0b, 0x74, 0xb7, 0x43, 0x19, 0x7c, 0x1b, 0xcf, 0xbe, 0x2b, 0x06, 0x30,
  0xbb, 0xdf, 0x07, 0x7f, 0xf2, 0xdc, 0x42, 0x47, 0x70, 0x8e, 0xe0, 0xfe,
  0x18, 0x2a, 0xce, 0xa9, 0xd8, 0xf0, 0xdf, 0x2f, 0x94, 0xe8, 0x23, 0xd8,
  0x05, 0x16, 0x0d, 0x40, 0xec, 0xfb, 0x69, 0x0d, 0x1c, 0x55, 0x50, 0xe7,
  0x1f, 0xf9, 0x07, 0xd1, 0x10, 0x17, 0x84, 0xf2, 0xd8, 0x07, 0x53, 0x48,
  0x17, 0x0a, 0xfe, 0x15, 0xef, 0xe8, 0xd0, 0x6e, 0x10, 0x53, 0x07, 0xa9,
  0xf6, 0xd3, 0x25, 0x68, 0xd0, 0x02, 0x14, 0x2d, 0x22, 0xeb, 0xd5, 0x03,
  0x21, 0xe5, 0xe7, 0x09, 0x03, 0x51, 0xe6, 0x00, 0x06, 0x21, 0xf0, 0xf6,
  0xdf, 0x0a, 0x44, 0x06, 0xc6, 0xea, 0x28, 0x96, 0x16, 0xea, 0x0b, 0x2e,
  0x7f, 0x1a, 0xde, 0xb2, 0xee, 0xb2, 0xdf, 0xde, 0xfc, 0x81, 0xeb, 0x11,
  0xdd, 0xfb, 0x0f, 0xfd, 0x12, 0x0f, 0xf2, 0x49, 0xf1, 0xa2, 0xce, 0x46,
  0x35, 0x02, 0x1d, 0xf4, 0xf5, 0xe6, 0x07, 0xf0, 0xe5, 0xfd, 0x37, 0x02,
  0xfb, 0x04, 0xe8, 0xfc, 0xdd, 0xf4, 0xea, 0x0c, 0xd9, 0xf8, 0x09, 0xaf,
  0xc3, 0x76, 0xf0, 0xfd, 0x31, 0x05, 0x0f, 0xe1, 0xf7, 0xd7, 0x10, 0x06,
  0xeb, 0x63, 0xe3, 0x04, 0x23, 0x0e, 0xc9, 0x09, 0xec, 0x59, 0xee, 0xeb,
  0x81, 0xd0, 0x51, 0xd3, 0x0b, 0x2e, 0x1a, 0x1e, 0xed, 0xfa, 0x42, 0x03,
  0x30, 0x0f, 0xf3, 0xfa, 0x1e, 0x96, 0xff, 0x05, 0xdd, 0x11, 0x3f, 0x9d,
  0xee, 0x30, 0xf4, 0xf1, 0x55, 0xa1, 0x11, 0x0b, 0xc2, 0x10, 0xbb, 0xb7,
  0x0a, 0xf9, 0x19, 0x1d, 0xca, 0xf1, 0xd7, 0x03, 0xf8, 0x1f, 0xe7, 0xc1,
  0x4f, 0xcf, 0x1e, 0x41, 0x46, 0x3f, 0x09, 0x12, 0xf8, 0xd7, 0x0f, 0xed,
  0xb5, 0x26, 0x66, 0xf2, 0xe5, 0x81, 0x02, 0x00, 0x15, 0x19, 0x07, 0xcf,
  0xc4, 0xf8, 0x25, 0xc0, 0xfb, 0x9b, 0xc6, 0xde, 0x12, 0x09, 0xeb, 0xd8,
  0xfa, 0x00, 0xf4, 0xde, 0xde, 0xfb, 0x39, 0xab, 0xef, 0x30, 0x0f, 0xe5,
  0xb9, 0xd0, 0x0a, 0x11, 0x24, 0xf6, 0x3d, 0xfb, 0xd5, 0x6a, 0xdc, 0xdf,
  0xcd, 0x04, 0xea, 0xff, 0xf9, 0x23, 0xe4, 0xe1, 0xe4, 0x6f, 0xf0, 0xfe,
  0xec, 0xe4, 0xf9, 0x28, 0xf0, 0x60, 0x09, 0xfe, 0x09, 0xc6, 0x10, 0xf1,
  0xad, 0x02, 0x07, 0x1d, 0x30, 0x08, 0xf1, 0x21, 0xf7, 0x81, 0xd2, 0x1e,
  0x68, 0x08, 0x32, 0xe7, 0xed, 0xdd, 0xcf, 0xe1, 0xee, 0xd9, 0x1c, 0xe0,
  0xee, 0x13, 0xfb, 0x0e, 0xb5, 0x01, 0xf6, 0x05, 0xe4, 0x16, 0x2e, 0x11,
  0xf9, 0x1f, 0xfe, 0x11, 0x24, 0xda, 0x1a, 0xfb, 0x0b, 0xe6, 0xe1, 0xe7,
  0x0c, 0x16, 0xf2, 0xef, 0x20, 0x29, 0x98, 0xfa, 0xf5, 0x67, 0x02, 0xd8,
  0x21, 0xa4, 0xef, 0xfe, 0xcf, 0xe9, 0x60, 0x1d, 0x3b, 0x30, 0x07, 0x1f,
  0xfe, 0x81, 0xe4, 0x53, 0x16, 0xf8, 0x21, 0xe7, 0xcc, 0x11, 0x0d, 0xda,
  0xfc, 0xd4, 0x30, 0xa7, 0x03, 0x04, 0x1d, 0x1f, 0x93, 0x06, 0xe7, 0x08,
  0xed, 0x15, 0x32, 0xb6, 0xdd, 0x2a, 0x0d, 0x09, 0x0e, 0xff, 0x0e, 0xef,
  0xee, 0xdb, 0xdb, 0xf4, 0xed, 0x2e, 0x0b, 0x30, 0x16, 0x28, 0xb0, 0xf3,
  0x0d, 0x5b, 0xf2, 0xf1, 0xe4, 0xe0, 0xd2, 0x03, 0xe1, 0xff, 0xfc, 0x5c,
  0x15, 0x32, 0xec, 0x2d, 0x14, 0xdb, 0xee, 0x1c, 0xfc, 0x31, 0x03, 0xf9,
  0x07, 0xfc, 0x1d, 0xed, 0xe6, 0x12, 0xb3, 0xa5, 0x1e, 0x9d, 0xe8, 0x22,
  0xbc, 0x22, 0x22, 0x3a, 0xfa, 0xf5, 0xae, 0xe5, 0xe4, 0x3b, 0x07, 0xe7,
  0xf0, 0xf1, 0xb9, 0xfb, 0x58, 0xad, 0x43, 0x39, 0x45, 0x09, 0x17, 0xdd,
  0x7f, 0x22, 0xed, 0xa2, 0x0a, 0x2d, 0xdb, 0xe3, 0xb3, 0x1d, 0xdc, 0xba,
  0x29, 0x48, 0xd4, 0xff, 0xed, 0xed, 0x21, 0x00, 0x33, 0xf3, 0x05, 0x08,
  0xde, 0xe4, 0xeb, 0x2a, 0x02, 0x3a, 0x00, 0x30, 0xea, 0x7f, 0xe6, 0x01,
  0x24, 0xd6, 0x4a, 0x1c, 0xed, 0x3e, 0x28, 0xd8, 0x01, 0x30, 0xea, 0xb7,
  0xa4, 0x23, 0x10, 0x0a, 0x00, 0xf7, 0xcd, 0xfb, 0xf0, 0xc6, 0x06, 0x17,
  0x3b, 0x07, 0x1c, 0x34, 0x4f, 0xd8, 0x12, 0xec, 0x1a, 0x21, 0x39, 0xff,
  0x27, 0x22, 0x7f, 0xfa, 0x30, 0xe1, 0x3a, 0x1a, 0xe3, 0xa0, 0x47, 0xe6,
  0x49, 0x49, 0xef, 0xf9, 0x27, 0x0d, 0xe1, 0xed, 0xcd, 0x0d, 0xec, 0xeb,
  0xed, 0xfe, 0xd6, 0x1e, 0x17, 0xe7, 0x1b, 0x30, 0x33, 0x05, 0xec, 0xd7,
  0x30, 0xe8, 0xba, 0x2d, 0x18, 0xf4, 0xd8, 0x4d, 0xbd, 0x2a, 0x21, 0xd0,
  0x13, 0x1a, 0x13, 0x27, 0xc7, 0xee, 0x3a, 0x35, 0xda, 0x34, 0x41, 0x40,
  0xec, 0x8e, 0x35, 0xd3, 0xd9, 0xe8, 0x22, 0x1c, 0x28, 0x7f, 0xe9, 0xdd,
  0xbe, 0x2c, 0x3f, 0xd4, 0xf5, 0x66, 0x48, 0xf3, 0xc2, 0xd2, 0xf1, 0x52,
  0x16, 0x3f, 0x06, 0xe1, 0x02, 0x5e, 0x16, 0x54, 0xfd, 0xe2, 0x39, 0xde,
  0x09, 0x3f, 0x19, 0x11, 0x64, 0xe6, 0xf4, 0xab, 0xf7, 0xff, 0xea, 0xf8,
  0x00, 0x03, 0xc2, 0xea, 0x7e, 0xfa, 0x02, 0x1d, 0x4b, 0xef, 0xf7, 0x0b,
  0xc1, 0x8d, 0x04, 0x48, 0x0a, 0x12, 0xff, 0x2c, 0x08, 0x81, 0x11, 0x08,
  0xea, 0x1d, 0x13, 0xf8, 0xf9, 0x02, 0x07, 0xdb, 0xf5, 0xbc, 0xef, 0x0e,
  0xfa, 0xe7, 0xf5, 0xf7, 0x08, 0xe2, 0x09, 0xd7, 0xd0, 0xfc, 0x1d, 0xc2,
  0xf1, 0x0c, 0xf0, 0x04, 0xc1, 0x01, 0xf4, 0x0b, 0x02, 0x1e, 0x16, 0xd8,
  0x9e, 0x6c, 0xd3, 0xfc, 0x0f, 0x04, 0xfd, 0xee, 0x0f, 0x06, 0x0d, 0x0d,
  0x01, 0x7f, 0x04, 0x07, 0x04, 0xd4, 0x0d, 0x13, 0x00, 0x29, 0xfa, 0xf6,
  0xde, 0x18, 0x53, 0x15, 0xfb, 0xff, 0x6e, 0x14, 0x49, 0x39, 0xd6, 0x48,
  0x7f, 0xf4, 0xc4, 0xfb, 0xd0, 0xf1, 0x22, 0xe0, 0xbe, 0xe9, 0x41, 0x26,
  0x35, 0x3c, 0x09, 0x40, 0x2b, 0xef, 0xe1, 0x1a, 0x57, 0x14, 0xf8, 0xce,
  0xdb, 0x2c, 0xbe, 0x2b, 0x11, 0x00, 0x11, 0x1a, 0x0b, 0x19, 0xd0, 0xe6,
  0xbf, 0xf6, 0x48, 0xbf, 0x14, 0xf3, 0xd3, 0x01, 0xc6, 0x01, 0x17, 0xe1,
  0xfd, 0xd7, 0x30, 0xce, 0x8d, 0xe3, 0xbf, 0x19, 0x2e, 0xc4, 0x66, 0x0e,
  0x35, 0x49, 0xb4, 0x60, 0x33, 0x15, 0xd7, 0x20, 0xba, 0xf5, 0x3c, 0xcb,
  0x81, 0x23, 0x0f, 0x45, 0xdd, 0x40, 0x15, 0xf1, 0x2b, 0xd0, 0x13, 0xfb,
  0x13, 0x07, 0xd1, 0xd7, 0x0e, 0x2c, 0xea, 0x0a, 0xc4, 0x13, 0xf3, 0x09,
  0xd6, 0x37, 0xe2, 0xea, 0xaf, 0xad, 0x3e, 0x19, 0x7e, 0xfd, 0xf2, 0x3f,
  0x2e, 0x45, 0x38, 0xda, 0xf7, 0x50, 0x39, 0xb7, 0xea, 0x2c, 0xfd, 0x63,
  0xfc, 0x09, 0xde, 0x81, 0x02, 0xd0, 0xbd, 0xf1, 0x2c, 0x0b, 0x34, 0xd3,
  0x15, 0xe6, 0x5f, 0x2f, 0xd9, 0xfd, 0xeb, 0xf1, 0xf9, 0x1d, 0x36, 0x0d,
  0x11, 0xfa, 0xce, 0xd6, 0x3d, 0x5d, 0xfd, 0x9c, 0xe1, 0x08, 0x1a, 0x20,
  0x08, 0xe5, 0x12, 0xf9, 0x0c, 0xee, 0xb5, 0xf3, 0x32, 0x34, 0xf0, 0xdf,
  0x22, 0xff, 0xba, 0xfc, 0x9d, 0xd9, 0x00, 0x0b, 0xfb, 0xf4, 0x4f, 0xa1,
  0x03, 0x33, 0xf8, 0x10, 0x0c, 0xda, 0x35, 0x0e, 0x49, 0xe5, 0xce, 0x4f,
  0x11, 0xc4, 0xb8, 0xf7, 0x19, 0x2e, 0x7f, 0x19, 0x0b, 0xa3, 0xc5, 0x7e,
  0x22, 0xdb, 0x39, 0x95, 0xf4, 0xf2, 0xb6, 0x04, 0xcf, 0xdd, 0xc9, 0x38,
  0xed, 0xe3, 0xf7, 0x3b, 0x49, 0xb7, 0xff, 0x1b, 0xf3, 0xfb, 0xfe, 0xf5,
  0x93, 0x23, 0x1c, 0x01, 0xad, 0xee, 0xca, 0xe3, 0xf7, 0x3b, 0xf2, 0xe1,
  0xcf, 0x48, 0x45, 0x9a, 0x19, 0xe9, 0xf1, 0x13, 0xda, 0xf1, 0x19, 0x02,
  0x40, 0x03, 0x16, 0xfe, 0xef, 0xd0, 0xce, 0x12, 0x32, 0xef, 0x0a, 0xe5,
  0xe0, 0xe6, 0x11, 0x02, 0xfc, 0xd6, 0xf7, 0x81, 0x17, 0x0c, 0xfa, 0x1c,
  0x96, 0xd9, 0x01, 0x0c, 0xc1, 0x17, 0x3d, 0x0a, 0xdd, 0x05, 0xe7, 0x06,
  0x1b, 0x15, 0x0c, 0xe8, 0x21, 0xf0, 0xe5, 0xe1, 0xcd, 0x30, 0x09, 0x0a,
  0x0a, 0x03, 0x0a, 0xea, 0x0a, 0x48, 0xdd, 0xdd, 0x8d, 0xc1, 0x16, 0x03,
  0x1f, 0x10, 0x12, 0x13, 0xdc, 0x0b, 0x22, 0x20, 0x07, 0xdf, 0xf3, 0x10,
  0xf7, 0xba, 0xe9, 0x0f, 0xee, 0x0c, 0x14, 0xf8, 0xf7, 0x38, 0xeb, 0xe0,
  0x51, 0xb7, 0x0a, 0x06, 0x81, 0x0f, 0xdf, 0xda, 0x29, 0x09, 0x28, 0x0d,
  0xb6, 0xfe, 0xd9, 0x11, 0xe4, 0x1b, 0xdf, 0xf4, 0x1c, 0xe8, 0x1b, 0x1f,
  0x5a, 0x26, 0x18, 0x25, 0x07, 0xf2, 0x0f, 0xef, 0xed, 0x1a, 0x13, 0xfd,
  0x1b, 0x1d, 0xd6, 0x02, 0xe8, 0x81, 0x44, 0x15, 0x04, 0x42, 0xcf, 0x1d,
  0x13, 0xcb, 0x0f, 0x98, 0xc9, 0xcc, 0xd4, 0x06, 0x35, 0xbf, 0x07, 0xe2,
  0xef, 0xb4, 0xb3, 0xdb, 0xfe, 0x07, 0xe0, 0x1c, 0xdd, 0xc0, 0x29, 0x51,
  0xae, 0xfe, 0xb9, 0x54, 0x42, 0xe7, 0xd3, 0xf2, 0x35, 0x0e, 0xe1, 0x43,
  0x78, 0x12, 0x03, 0x22, 0xfd, 0xc5, 0x05, 0x20, 0x51, 0xdd, 0xb8, 0xe0,
  0xf7, 0x30, 0x2d, 0xcb, 0xe6, 0x0b, 0xa5, 0xe1, 0x0f, 0xe3, 0x03, 0xeb,
  0xee, 0x22, 0xe7, 0x5a, 0x1d, 0xff, 0xa7, 0x2e, 0xff, 0xf9, 0x2c, 0xf3,
  0xf3, 0x3b, 0x1d, 0x37, 0xe5, 0xf6, 0xf1, 0x38, 0xf3, 0xbd, 0x3d, 0x0b,
  0x12, 0xfa, 0x02, 0x08, 0xf9, 0x26, 0x99, 0x13, 0x0e, 0xeb, 0x15, 0x29,
  0xd7, 0xf1, 0x04, 0xff, 0x81, 0xfe, 0x31, 0x2c, 0x04, 0xda, 0x2a, 0x13,
  0x1a, 0x5f, 0x1f, 0xe9, 0xe8, 0xf6, 0x0e, 0xbe, 0xb6, 0x1f, 0x19, 0x0d,
  0x1f, 0xb8, 0x2d, 0xe5, 0x2e, 0x55, 0xd2, 0x55, 0x19, 0x61, 0xbb, 0xb8,
  0xac, 0xff, 0x2f, 0xa4, 0x24, 0xef, 0x06, 0x4e, 0xfa, 0xac, 0x19, 0x6d,
  0x06, 0x1f, 0x02, 0x02, 0x54, 0x81, 0x17, 0x28, 0xeb, 0x42, 0xbd, 0x2c,
  0x5f, 0x90, 0xe8, 0x32, 0xcf, 0x1f, 0xd3, 0xf4, 0xeb, 0x18, 0x35, 0x22,
  0x00, 0xe5, 0xfb, 0x06, 0x1d, 0x34, 0x3a, 0x29, 0xb7, 0x60, 0x31, 0xd5,
  0xcc, 0x06, 0x25, 0x08, 0xeb, 0xf5, 0xf0, 0xdf, 0xfc, 0xbd, 0xdf, 0xe6,
  0xfe, 0xfc, 0x0b, 0x0d, 0xfa, 0xc9, 0xf7, 0x4f, 0xfa, 0x06, 0x1c, 0x3b,
  0x23, 0x44, 0x21, 0x12, 0xf8, 0x07, 0xfc, 0x13, 0x08, 0x7f, 0x06, 0xdb,
  0x03, 0x1f, 0xcf, 0xdd, 0xfc, 0x15, 0x0c, 0xea, 0xfd, 0xf2, 0xf4, 0x06,
  0xeb, 0xe0, 0x1f, 0xdd, 0xe0, 0x15, 0x05, 0x13, 0x0d, 0xf0, 0xe9, 0x23,
  0xfb, 0x4a, 0x32, 0x01, 0x02, 0xe2, 0xec, 0x71, 0xb0, 0x06, 0x14, 0xac,
  0x3b, 0xfd, 0xbf, 0xbf, 0xe9, 0xd7, 0xea, 0xcd, 0x48, 0xee, 0x51, 0xf2,
  0xe5, 0x81, 0x9c, 0xcd, 0x18, 0x15, 0x3b, 0xd2, 0x20, 0x44, 0x9b, 0xd8,
  0xdb, 0x04, 0xee, 0x0c, 0xb8, 0xd9, 0x5a, 0x1a, 0x00, 0xdd, 0x0b, 0xfd,
  0x42, 0xe2, 0xef, 0x04, 0x19, 0x01, 0xb5, 0xea, 0xe8, 0xfd, 0xaa, 0x12,
  0xae, 0x14, 0xc8, 0x1a, 0xed, 0x32, 0xe6, 0xef, 0xf4, 0xec, 0x23, 0xfe,
  0xf8, 0x12, 0x15, 0x06, 0xf7, 0x29, 0x15, 0xec, 0xe2, 0x0a, 0xf3, 0x32,
  0x04, 0x13, 0xf0, 0xe2, 0x20, 0xec, 0x09, 0xf8, 0xfe, 0xfd, 0x0a, 0x4f,
  0xf9, 0xdf, 0xf8, 0xfb, 0x1f, 0xd5, 0xfe, 0xfb, 0xf4, 0x0e, 0x81, 0xde,
  0xf1, 0xfd, 0x07, 0x15, 0xfe, 0x0d, 0x0d, 0xff, 0xfe, 0xc8, 0x48, 0x48,
  0x0e, 0xf8, 0x01, 0xf5, 0x16, 0x15, 0x05, 0x13, 0x0a, 0xb5, 0xfc, 0xef,
  0x03, 0x81, 0xbc, 0x0e, 0x16, 0x0f, 0x03, 0xfd, 0x12, 0x07, 0x06, 0x21,
  0xf1, 0xa4, 0xc3, 0x24, 0x3f, 0xff, 0x22, 0xf5, 0x0a, 0x15, 0xba, 0xed,
  0x07, 0xf5, 0x16, 0x22, 0xf4, 0x25, 0x23, 0xf8, 0x18, 0xfe, 0x01, 0x18,
  0x01, 0xe4, 0x28, 0xe8, 0xd9, 0x5b, 0x1b, 0x01, 0x14, 0xfb, 0xf5, 0xf1,
  0xde, 0xf6, 0x09, 0xf0, 0xff, 0x4d, 0xf3, 0xec, 0xea, 0xfb, 0xb7, 0xfd,
  0xfe, 0x01, 0xf1, 0xf3, 0x02, 0xe9, 0x81, 0x41, 0x1d, 0xe2, 0x50, 0xad,
  0xfe, 0x46, 0xd8, 0xcd, 0xe3, 0xc6, 0x86, 0xf2, 0x16, 0x03, 0x2e, 0xf5,
  0xa4, 0xcf, 0xb6, 0xd6, 0x07, 0xdc, 0x14, 0xf5, 0x00, 0x48, 0x93, 0x03,
  0xcc, 0xe6, 0xe1, 0x27, 0x17, 0xb9, 0x59, 0x12, 0x20, 0xf7, 0xe5, 0xfe,
  0x25, 0x1a, 0x20, 0xe4, 0xf1, 0x20, 0xeb, 0x24, 0xe8, 0x00, 0xd8, 0x2c,
  0xce, 0x48, 0x46, 0x51, 0xc7, 0x2a, 0xeb, 0xfa, 0x82, 0xe7, 0x19, 0xf6,
  0x3b, 0x2f, 0x29, 0x37, 0xe4, 0x1c, 0x2c, 0x2b, 0x5d, 0xee, 0x11, 0xef,
  0x00, 0xdb, 0xf6, 0x16, 0xc2, 0x32, 0x2b, 0xe4, 0xf0, 0x3d, 0xd5, 0xcb,
  0x7f, 0xad, 0x3a, 0x19, 0xcb, 0x1d, 0xdd, 0xad, 0x0f, 0xe6, 0x35, 0xf7,
  0xd8, 0xf8, 0x1a, 0xfe, 0xf5, 0xf5, 0xdc, 0xfd, 0xfa, 0xde, 0x06, 0x0e,
  0x36, 0xe7, 0x16, 0x12, 0x0a, 0xed, 0x14, 0xe6, 0xd1, 0xd8, 0x40, 0xe4,
  0xb0, 0xcb, 0x3a, 0x23, 0x4c, 0x3f, 0xd5, 0xd1, 0xd9, 0xe1, 0x1a, 0xd9,
  0x5c, 0x13, 0x3e, 0xbd, 0xea, 0xe8, 0xe7, 0x62, 0x28, 0x2f, 0xea, 0xd1,
  0xeb, 0x7f, 0x3d, 0x25, 0x28, 0x0c, 0x54, 0x07, 0xf3, 0x6b, 0x01, 0xf9,
  0x78, 0xfa, 0xfd, 0xb5, 0xc5, 0xfb, 0x09, 0xfa, 0xde, 0xdc, 0x86, 0xe0,
  0x72, 0x17, 0x02, 0x25, 0x23, 0x3a, 0xff, 0x2b, 0x8c, 0xbc, 0x22, 0x3f,
  0xe0, 0x0b, 0x0c, 0xf2, 0xfd, 0x1f, 0x58, 0xf1, 0x4e, 0x00, 0x18, 0x46,
  0xf3, 0xab, 0xfc, 0x0e, 0x24, 0x2a, 0xeb, 0xf4, 0x1b, 0x0f, 0x2c, 0xf9,
  0x12, 0xf7, 0xb9, 0xdf, 0xfd, 0x00, 0xdd, 0x58, 0x23, 0xb1, 0x0c, 0x12,
  0x54, 0xec, 0xe2, 0xbd, 0xed, 0xec, 0xda, 0x21, 0xe8, 0xf1, 0xfd, 0x61,
  0x1d, 0x0f, 0x1c, 0xac, 0x59, 0x22, 0x1c, 0x48, 0xe2, 0xfc, 0xf5, 0x17,
  0xd9, 0x1c, 0x47, 0x55, 0xd3, 0xd2, 0x3d, 0x81, 0x01, 0xf5, 0xdc, 0xeb,
  0x16, 0x12, 0x38, 0x28, 0xd5, 0x64, 0x39, 0x17, 0xf5, 0x19, 0xf2, 0x0c,
  0xe2, 0x27, 0x2c, 0xcf, 0x0a, 0xec, 0xd2, 0x81, 0xc0, 0xf6, 0x02, 0x54,
  0x15, 0xe0, 0xec, 0xef, 0x25, 0xeb, 0xe9, 0x27, 0xfc, 0xb6, 0xcf, 0xda,
  0x10, 0xe2, 0xf4, 0x1d, 0xe3, 0x1b, 0x08, 0xe1, 0x77, 0xf1, 0x04, 0x23,
  0xff, 0xe9, 0xfb, 0xf7, 0x21, 0xee, 0x14, 0xe5, 0xe9, 0xff, 0xee, 0x14,
  0xaa, 0x0b, 0x30, 0x19, 0xec, 0x18, 0x21, 0xed, 0xce, 0xd3, 0xeb, 0xcd,
  0xf2, 0xe5, 0xfc, 0xed, 0x09, 0x81, 0xdf, 0x38, 0x1d, 0xeb, 0x31, 0xf3,
  0xf8, 0x54, 0x2e, 0x16, 0xf4, 0xfd, 0xf4, 0x08, 0x1c, 0x44, 0xea, 0x0e,
  0x02, 0x31, 0x00, 0xae, 0xb5, 0x34, 0x06, 0xf3, 0x1d, 0x0b, 0xdf, 0xea,
  0x47, 0x05, 0xff, 0x16, 0x07, 0x3d, 0xfc, 0x04, 0xea, 0xd5, 0x03, 0x2c,
  0xfd, 0x0f, 0x3b, 0x24, 0xf9, 0xd9, 0xfb, 0xde, 0x43, 0x48, 0xce, 0xd3,
  0xc2, 0xd7, 0xff, 0x08, 0x1b, 0x15, 0x32, 0xd6, 0x1c, 0xda, 0x11, 0x34,
  0x10, 0x29, 0xf0, 0x25, 0x3a, 0x1f, 0x1b, 0x11, 0x02, 0x33, 0x38, 0xc0,
  0x01, 0x6d, 0xf5, 0xe3, 0x0d, 0xc4, 0x40, 0xd8, 0xe3, 0x05, 0x02, 0xe3,
  0xef, 0xef, 0xd5, 0xf5, 0x22, 0x02, 0xe1, 0xf4, 0xb2, 0x26, 0xf2, 0xe8,
  0x81, 0x9e, 0xe3, 0x21, 0x08, 0x12, 0x15, 0x03, 0x1b, 0xf2, 0x93, 0x4d,
  0xbd, 0x55, 0xfb, 0x81, 0xf8, 0xdf, 0xdc, 0xc8, 0xd6, 0x17, 0x14, 0x05,
  0xfc, 0x13, 0xee, 0xed, 0x10, 0x9f, 0x03, 0xda, 0xe6, 0xf0, 0x49, 0x4d,
  0xf7, 0xe5, 0xa7, 0xc4, 0x35, 0x10, 0xf9, 0x15, 0xec, 0x42, 0xa7, 0x16,
  0xd7, 0xeb, 0x02, 0xec, 0x2b, 0xe3, 0x13, 0xe1, 0xcc, 0xfc, 0x4c, 0x19,
  0xda, 0x27, 0xe1, 0xe1, 0x8a, 0x9e, 0xcc, 0x2e, 0xfe, 0x8d, 0xfb, 0x07,
  0xdf, 0xfe, 0x35, 0x04, 0xf9, 0x4c, 0xed, 0xf4, 0xfd, 0xaa, 0xec, 0xe3,
  0xd9, 0xd2, 0x08, 0xd2, 0x0c, 0x81, 0xe4, 0x49, 0x29, 0x1c, 0x20, 0x10,
  0x0e, 0x0a, 0x2f, 0x13, 0xe9, 0x1d, 0xe6, 0x08, 0xf5, 0x4f, 0xe9, 0xf2,
  0x0b, 0x41, 0xe8, 0xf2, 0xea, 0x19, 0x09, 0xf0, 0x31, 0xf0, 0xfb, 0x07,
  0xe7, 0xeb, 0xe8, 0x1c, 0xe7, 0x0d, 0x0b, 0x17, 0x10, 0xcc, 0xfe, 0x13,
  0xfd, 0x1e, 0x29, 0x14, 0x8d, 0x24, 0xba, 0x04, 0x2b, 0xac, 0x09, 0xc9,
  0xf8, 0x07, 0xf4, 0x14, 0x55, 0xe8, 0xb3, 0x4b, 0xe1, 0xd5, 0xfe, 0xf4,
  0xb6, 0x0c, 0x28, 0x25, 0xf0, 0x52, 0xfe, 0x0c, 0x19, 0x2e, 0xef, 0x1c,
  0x15, 0x16, 0xf8, 0xc0, 0x0d, 0x32, 0xdf, 0xe3, 0x05, 0x23, 0x00, 0x24,
  0xf1, 0xf5, 0x81, 0x0e, 0xda, 0x86, 0x2d, 0xd1, 0x45, 0x1c, 0x0d, 0x20,
  0x1c, 0x7e, 0x05, 0xd3, 0x15, 0x5b, 0x7f, 0xbf, 0x48, 0x7e, 0xff, 0xff,
  0x9e, 0xcf, 0xff, 0xff, 0x04, 0x00, 0x00, 0x00, 0x00, 0x01, 0x00, 0x00,
  0x00, 0x00, 0x00, 0x00, 0x00, 0x00, 0x00, 0x00, 0x00, 0x00, 0x00, 0x00,
  0x00, 0x00, 0x00, 0x00, 0x00, 0x00, 0x00, 0x00, 0x00, 0x00, 0x00, 0x00,
  0x00, 0x00, 0x00, 0x00, 0x00, 0x00, 0x00, 0x00, 0x00, 0x00, 0x00, 0x00,
  0x00, 0x00, 0x00, 0x00, 0x00, 0x00, 0x00, 0x00, 0x00, 0x00, 0x00, 0x00,
  0x00, 0x00, 0x00, 0x00, 0x00, 0x00, 0x00, 0x00, 0x00, 0x00, 0x00, 0x00,
  0x00, 0x00, 0x00, 0x00, 0x00, 0x00, 0x00, 0x00, 0x00, 0x00, 0x00, 0x00,
  0x00, 0x00, 0x00, 0x00, 0x00, 0x00, 0x00, 0x00, 0x00, 0x00, 0x00, 0x00,
  0x00, 0x00, 0x00, 0x00, 0x00, 0x00, 0x00, 0x00, 0x00, 0x00, 0x00, 0x00,
  0x00, 0x00, 0x00, 0x00, 0x00, 0x00, 0x00, 0x00, 0x00, 0x00, 0x00, 0x00,
  0x00, 0x00, 0x00, 0x00, 0x00, 0x00, 0x00, 0x00, 0x00, 0x00, 0x00, 0x00,
  0x00, 0x00, 0x00, 0x00, 0x00, 0x00, 0x00, 0x00, 0x00, 0x00, 0x00, 0x00,
  0x00, 0x00, 0x00, 0x00, 0x00, 0x00, 0x00, 0x00, 0x00, 0x00, 0x00, 0x00,
  0x00, 0x00, 0x00, 0x00, 0x00, 0x00, 0x00, 0x00, 0x00, 0x00, 0x00, 0x00,
  0x00, 0x00, 0x00, 0x00, 0x00, 0x00, 0x00, 0x00, 0x00, 0x00, 0x00, 0x00,
  0x00, 0x00, 0x00, 0x00, 0x00, 0x00, 0x00, 0x00, 0x00, 0x00, 0x00, 0x00,
  0x00, 0x00, 0x00, 0x00, 0x00, 0x00, 0x00, 0x00, 0x00, 0x00, 0x00, 0x00,
  0x00, 0x00, 0x00, 0x00, 0x00, 0x00, 0x00, 0x00, 0x00, 0x00, 0x00, 0x00,
  0x00, 0x00, 0x00, 0x00, 0x00, 0x00, 0x00, 0x00, 0x00, 0x00, 0x00, 0x00,
  0x00, 0x00, 0x00, 0x00, 0x00, 0x00, 0x00, 0x00, 0x00, 0x00, 0x00, 0x00,
  0x00, 0x00, 0x00, 0x00, 0x00, 0x00, 0x00, 0x00, 0x00, 0x00, 0x00, 0x00,
  0x00, 0x00, 0x00, 0x00, 0x00, 0x00, 0x00, 0x00, 0x00, 0x00, 0x00, 0x00,
  0x00, 0x00, 0x00, 0x00, 0xaa, 0xd0, 0xff, 0xff, 0x04, 0x00, 0x00, 0x00,
  0x40, 0x01, 0x00, 0x00, 0xf3, 0x08, 0xac, 0xb7, 0xfc, 0x2e, 0xe1, 0x3d,
  0xc1, 0xe5, 0x53, 0x62, 0x1e, 0x72, 0x3b, 0xad, 0xcf, 0xe7, 0xd4, 0x1d,
  0x2c, 0x24, 0x5c, 0x4c, 0xe2, 0x11, 0xef, 0x77, 0x0a, 0x6f, 0x30, 0x23,
  0x30, 0x15, 0x10, 0xed, 0x22, 0x36, 0x6f, 0xf9, 0x24, 0x9a, 0xed, 0x0a,
  0xe4, 0x0c, 0xfe, 0xff, 0xef, 0x3f, 0xb8, 0xa3, 0x16, 0xf1, 0x3f, 0x15,
  0x7f, 0xd5, 0xfa, 0xb9, 0x09, 0x92, 0x0c, 0x2f, 0x0b, 0x0b, 0xcb, 0xcb,
  0x03, 0xfc, 0xff, 0x26, 0xea, 0xe8, 0x2a, 0x3d, 0x10, 0x78, 0xf9, 0xe8,
  0xd7, 0xf3, 0xd7, 0x0b, 0x48, 0x25, 0x23, 0x2c, 0xf8, 0xf5, 0xf1, 0x51,
  0xf2, 0x20, 0x2f, 0xfd, 0x4f, 0x02, 0x0b, 0x12, 0x27, 0x1a, 0x46, 0xf8,
  0x0c, 0xbe, 0x18, 0xe9, 0xec, 0xec, 0xf6, 0x19, 0xe0, 0x28, 0xd3, 0xcf,
  0x12, 0xcf, 0x26, 0xec, 0x1e, 0x0c, 0x1c, 0xce, 0xf7, 0x8c, 0xf6, 0x24,
  0xf4, 0x2d, 0xf4, 0xe8, 0x1e, 0xe9, 0xf1, 0x17, 0xcd, 0xf1, 0x45, 0x4c,
  0x08, 0x49, 0x07, 0xe3, 0xe4, 0x18, 0xe0, 0xfd, 0x27, 0x1c, 0x02, 0x47,
  0x13, 0x05, 0xf1, 0x4c, 0xeb, 0x08, 0x26, 0xfb, 0x5a, 0xea, 0x09, 0x1c,
  0x2c, 0xf9, 0x49, 0x1c, 0x30, 0xaa, 0x42, 0xd7, 0xc5, 0xc9, 0xed, 0x1c,
  0xcf, 0x18, 0xdf, 0xe3, 0x08, 0xc6, 0x2a, 0xf8, 0x06, 0x1c, 0x2b, 0xec,
  0x15, 0xa0, 0xfb, 0x1a, 0x19, 0x13, 0x1d, 0xf8, 0x2e, 0xd0, 0xe7, 0x1a,
  0xad, 0x0e, 0x22, 0x41, 0xfc, 0x2d, 0xf9, 0xf4, 0x10, 0x1b, 0xf5, 0xf2,
  0x18, 0x30, 0x00, 0x3b, 0x44, 0xea, 0x01, 0x28, 0xe9, 0x16, 0x47, 0x00,
  0x35, 0xd1, 0x16, 0x17, 0x40, 0xe2, 0x25, 0x21, 0x38, 0xb1, 0x3e, 0xdd,
  0xcb, 0xd1, 0xf7, 0x18, 0xcb, 0x25, 0xe5, 0xed, 0x02, 0xc9, 0x04, 0xdb,
  0xf9, 0x07, 0x28, 0xfc, 0x12, 0xd7, 0xff, 0x32, 0x65, 0x32, 0x48, 0xde,
  0x4f, 0xca, 0x0b, 0x2d, 0xb3, 0x2f, 0x45, 0x0c, 0xbf, 0x3e, 0x07, 0x08,
  0x22, 0x3e, 0x0b, 0xc1, 0xf7, 0x45, 0xf5, 0x67, 0x53, 0xb0, 0xd3, 0x1e,
  0xb9, 0x27, 0x3b, 0xe6, 0x34, 0xa4, 0x0d, 0x49, 0x46, 0xd5, 0x5a, 0x46,
  0x36, 0xb6, 0x4a, 0xe6, 0xba, 0xd0, 0x35, 0x0b, 0xe3, 0x1e, 0xc3, 0xfd,
